node {
  name: "input"
  op: "Placeholder"
  attr {
    key: "dtype"
    value {
      type: DT_FLOAT
    }
  }
  attr {
    key: "shape"
    value {
      shape {
      }
    }
  }
}
node {
  name: "transformer/contract/MirrorPad/paddings"
  op: "Const"
  attr {
    key: "dtype"
    value {
      type: DT_INT32
    }
  }
  attr {
    key: "value"
    value {
      tensor {
        dtype: DT_INT32
        tensor_shape {
          dim {
            size: 4
          }
          dim {
            size: 2
          }
        }
        tensor_content: "\000\000\000\000\000\000\000\000\004\000\000\000\004\000\000\000\004\000\000\000\004\000\000\000\000\000\000\000\000\000\000\000"
      }
    }
  }
}
node {
  name: "transformer/contract/MirrorPad"
  op: "MirrorPad"
  input: "input"
  input: "transformer/contract/MirrorPad/paddings"
  attr {
    key: "T"
    value {
      type: DT_FLOAT
    }
  }
  attr {
    key: "Tpaddings"
    value {
      type: DT_INT32
    }
  }
  attr {
    key: "mode"
    value {
      s: "REFLECT"
    }
  }
}
node {
  name: "transformer/contract/conv1/weights_quint8_const"
  op: "Const"
  attr {
    key: "dtype"
    value {
      type: DT_QUINT8
    }
  }
  attr {
    key: "value"
    value {
      tensor {
        dtype: DT_QUINT8
        tensor_shape {
          dim {
            size: 9
          }
          dim {
            size: 9
          }
          dim {
            size: 3
          }
          dim {
            size: 32
          }
        }
        tensor_content: "f`:j\254p|\307\242l\240Hh\256\247`^\177;\220\253~\307\246\206\216\257uve/\"u\2062U\233Hw\223\275o\212nu\232\2156Ms<\202\201y\234\231\201\177\240yuC\000!\\f<^jZex\315v\216QglrC+u?kjbs\221|i\225p]I!4kZ@l\237gx\244\236v\233Hj\231\231ags;\217\235y\255\242~\205\237h|iD.|\205>Q\215Lv\200\271\200\210ns\210\204F\\l>yz}\215\233{x\233p\200O\0273acM\\ddkm\311\205\216RhbkUBo@ll`k\222xi\216jdY2CmVNl\224p}\213\220p\220Jg\224\223cufE\216\232x\235\231y\203\210b\204lQ<\202\204RS\213T|\200\244|\203tq\206\207KpgC{y\201\211\222tt\222p\217T*C`e[\\dprg\262\205\212PfembPlEui_i\223xi\216fngBPuYbv\222z\206\207\177g\220Wa\222\222q\201\\J\230\227|\221\223o\177}g\221wbX\215\214ca\210_\201|\220q\211\201h\203\203`\177]E\205y\207\201\220qq\213t\242`D^jbmafyzi\237\201\222UZflvbjG~kad\223yj\217hzuS]{^pw\217\177\223\221s\\\210`_\235\225v\204TP\223\232x\217\216e|xr\222rig\227\222ue\213_\211\177v]\203\204d\206\213c\206VN\207z\212~\224fl\220z\244^Rksmzgj|\201n~o\217XXmm|deM\210k_g\215pg\215p|uZk\201bnw\221\202\233\222gY\207f\\\234\222v\207RQ\230\235|\224\221\\yrv\215kxl\231\224wf\207c\223\177hV\201\207[\212\205f\203TN\211{\207\200\224Zl\217}\242\\ctvk\177jg\202\214koh\217^Usi\201eZP\204l_h\226ih\223jwtds\201]h\177\224\200\236\232hX|a^\244\226o\207SU\220\243~\231\214Pzl}\213a\204r\231\224sr\213b\223\205hVx\177d\221\216a\200PR\205\177\210\210\225Sn\207\201\235Xmvpm\201ul\207\215kl`\205VYxl\200aWS\201oci\213cn\221nsol}zWf\216\234\206\244\257gezcf\244\241i\210jV\225\253\204\242\204Oxi\230\211g\211x\220\213q}\216d\234\214n\\y~e\233\220]\177eT\214\210\214\220\217Sm\200\214\224]p}hf~\202o\201\225nrb\212Qb~j\200Z`U\177qgq\207gw\222sppn\204pR`\234\250\206\254\306de~]x\246\257d\177\211Z\227\255\200\257\201Gvf\251}s\203\177\213\205n\211\227h\250\224qY|ux\234\235XszT\213\211\212\225\211Qj\177\225\207kg\202`f\200\217v\206\232roY\212G}\200u}QkU\177uou|fu\214sftr\214k[2k\242sx\257\227r\222Ma\233\223^b\177<\223\241~\262\237\205\210\241k{jB\024z~2T\217Pu\211\251uz{x\216\2076NyC\212{~\221\214ty\215syR\030$[bAcj_jr\274\200|VdciJ5tJphdl\207vd\212j]U5;kW.i\224lt\217\222z\221J^\216\204^ksD\213\225y\234\225y\177\221`\200mP\035{\202@X\205Su}\247\205|ur\203{>crK|s|\206\213rv\216r\201Y-5\\ZP`elii\273\225\201Va_c]GnNsc^e\205vk\210hciHGoQ7k\207irx\177u\211H]\204~\\piL\207\220v\203\216r}}^\204kT*\203\177PN\202Qww\216\203yyr|vEsmL{u~x\212nu\203m\225Z4@Z^]Vgtke\240\225\201O^abgMpJsa^b\210ti\177dmpKNrTMp\212mowvu\215TX\204~`\202kR\206\214y|\213kroe\220hdC\214\205h[\206Xqw\206~\200\205ayvY}oPzp\207x\213go\202u\247\\PY_[pYc|kg\224\233\213TYb_zYsP}b\\]\216uj\202iwv``~[bs\204js}df\211]W\211{f\203eX~\217zx\200^odp\223_fO\227\213v`\213[r{gn\200\206^yv]\204nTtq\212x\202_j\201z\254W]gid|Xf\177pls\212\211RUj\\~VrRza\\a\205pk\203lxvbg\201b^t\207kw\200ah\204bV\207ze\200^[|\217~\201}Sgc{\220R}^\235\224uc\214Sw\177`j}\215^~q`\204hRru\215|\177Sf\205\201\254Pnqpf\205Xg\200skf}\214ZSjY\206[hU|a\\b\201gi\214ouupq\177_Xy\204l\202\210[eyd^\214\201a\200X_v\227\200\210xEcf|\215K\204e\235\223lg\211Q\202~bht\204_\204t[\203\\Vkv\222\200|Q^\211~\244Krylh\204he\201zk]p\205T[qZ\202[]Xm`gdydh\220lrqr~zZV\202\217m\217\236_ntgh\223\217^\200o[y\235\210\220xJbg\227\210M\200j\232\217nn\220T\204\206hhp\204j\214\177VzjUp~\226\205}Va\207\215\230Okzoj\204pl\204\213gkq\206Sht`\204R`Vnipfykq\231jqmx\204sVK\212\232u\237\265\\ly]\177\225\245Yy\206\\\177\242\206\236tE^d\260~Ywk\221\210bx\222U\231\220gcvw~\221\213Mo\201Rs\200\224\211yU^\206\221\212[a{cl\201\200k\207\222nh_\213D~ze{MfUtlrkvjq\225pgpl\214rU?r\242\204\200\257\211p\217IX\233\215li|L\234\240|\267\227\202\202\237jw}U%\177wEc\216i\177\214\221fixs\217\201MetW\227y\204\222\201vt\212r{f5=]YQqhvsr\252ruV[ef\\FsY\202ail~{h\205nbmLKjN<o\225{s\213\205t\215DS\213\177jpqM\220\220t\232\213y~\212b}~c.\202uS_\204gy}\227zmsl\201uTooV\211s{\205\202qx\203o\202oHKXPaoe\200oi\253\211rK\\``iTpX\201aZg\177~p\200ib~_]oNCp\214pkvwu\211FR}q`uoR\205\210o\205\204t{vc\201v`5\206uc[\205doz\203totkzoWzoW\202mw}\204pwzn\220iMVWKn`e\207ni\233\215}EWbY|UoZ\202\\Ra\206{rzdj\206b_qSTx\225lZ{tu\220YQzq_z\177]{\204u\177{hsam\206kpH\214\177ue\220_`}\205x\201\204_xn`\206\177\\sn\201{~gqsu\244e_iUS~cl\215dl\225\235\215CScW\204[v_~ZW`\201yrujn\211ll{Z[z\220_N\201dt\221dVxub\203\202]k\207|xq\\g[|\216VrU\232\207|e\217SU~nt\205\210_zkb\213\205\\fn\210xu\\fx|\250Tdpa\\\205bi\206Xnw\237\215FYeX\207Vz`r^W`zpiyot\200oq\204^Y{\221\\T\201_r\210j^wq`\202\202`h\205\204{kM]^\215\215Mza\241\217xh\223PX\201ix\177\214cxja\213\214X\\n\225zqS^}\203\253Rnwle\207]i\206\\lm\227\215McfS\215Vu^p^\\\\qlk\204ou\200ux\177_W\203\207^^\205Us|fhxw_xq`^\220\205~aGSf\214\207F\200i\241\221sk\220M_\203cuw\214m{o^\200{YWs\232zjWS\212\203\243No\200pe\214ch\215dga\211\207MmkS\217Qg[g_a^jko\222loy|\177{\\O\205\212hw\231Ywsdx\201\211^zubf\231\220\212bJPk\233\204T|g\244\221tp\220Tr\205cqn\210r\205u]sxX^y\237\200jZX\220\215\230Uj\177sh\211oh\213sic\177\205HvvS\213Nd[h`sdkst\235njwy\205tWL\221\224w\215\261Vpw_\214\211\236\\t\207ar\240\223\222eGVj\267|bro\233\214gz\220X\212\220ddt~\204\211\205Sf\200Qo}\236\205m[Y\222\227\206e^\204hj\211zl\216\207ken\212C\212w`\210KeXpgvenou\240sh|u\216sWBn\224\206\207\244wf\214OM\235\206nfz[\250\233}\253\227\200t\242mx~f\034}tKX\177k\210\210nYc}n\220\205Vcnj\244{\203\215\210mp\212z\200kMGXUVe`\177xo\217hmXXhhaAji\215dim\204zh\205k_obUnJ=l\204\177t\205um\210HG\205uifka\230\215r\222\212|s\212drwq$}q`Wxj|}sgbri|uYidk\220py\202\202np}l\203kdTRFiZ_\207te\220|nHX\\\\tKhf\214ZXc\200}l}e\\\177sbrG?m\205j_tnq\211HKvp_onb\205\202i\200\177pilj{ft!\203jmK|dkvnimuevmWuii\200gq}\202jjpl\217ad[N=rN`\212ie\206\215y<V_\\|Hhg\205ZOb\204wrwi`\203tapFKq\221VDxmw\222XLomWu\207jp|oys`[Vy\177K}3\213rxW\211UN|yn}|_sjYv\204gljzvzbchv\232LpfIB\201Mi\211Rh\207\243\212:Y^W\205Fxh~XL_\201vlnme\204|mzQIt\2236-\205bx\222_VhnNr\236fZ\200vqaVEP\212\2044l8\225~x[\220=6~mv\204\205eljMs\231hUi\205ujVOg\200\2419flVP\202Jm}=mr\257\221<a`S\2014\202eoWW_tncrpoytlyYDz\2234+\206X}\205li`tPr\244gN|\200tVJ=N\227\2036mM\244\216qc\23031\200h\201}\213jncPr\254fHj\227w_KNv\206\242?`ye`\211Pl~<kk\267\213El_M\2107\210fhW^Zgjfyqnzxt}\\F\205\210?=\213O{qdvb{Mn\224dL\205\206vO?8V\232\177FmZ\247\224mh\2248>\177a\200k\210pnjOl\241\\Fk\224wXIH\201\207\241Oa\177lh\212\\i\205Gid\255}BwfS\207;}_bX_^^gl\214kl\177t}yXC\214\203XZ\226Dyab\206k\207Tq\221g]\215\213zL<:b\253yWf`\242\221nn\221D]\205X{^\207yzrQj\225[Uo\230{YKK\215\216\222aW\177ph\215fh\211`g_\234xH\201kW\215=t^l\\ja_mv\230mi\202v\204sU8\217\202j}\254CkhZ\233q\241Ph\230et\232\222\204U:@k\310me]`\233\220_o\215Nv\213Ukhy\212}\204E]\225Wow\234\177`LO\223\234\200hKyjh\205og\216~j`~z9\222nb\2045qUwaucclx\237t^\204q\204uXCp\216\205\203\250qg\217YB\242\204vmol\246\236}\252\226\206h\247lz}u/\207yUX\200s\203\211iVk\200h\231\203`tcv\236z\214\215\213xk\217u\201icY\\Y^b_\177wl\177krhPifnLhr\214csj\204\203h\204hdnogvL=m\177\177r~oi\215S@\206qnqek\226\214t\224\206~f\213a{r\2034\207ufPtr{zjajxa\205nf}Su\216s}\200\204vn\200g\214hudXJr]X\217qa}\201uVR^Z~V]o\211[cd\205\204q|`h\200\177puJFi~h[rfn\222WG|eethp}\177m\212|s\\pa\177X\203.\212svExdevjgw}_}dh}]wxkx\200\200nfmh\224Z{iT@~J^\217gcu\224\204JT^Q\215M^p\200XTa\177\200qrfk\177\205nvGPq\221I9{ks\225aHlj`x\212w\\{s}odKRr\204@\2118\217r\201O\213PEzxs\207\206\\xaay\202r]i\200}xf[cu\241C\201sP@\213Lk\206Pj\206\260\222GU_K\216FworTVe|\177jlhp\200\213t{RN{\222\'\035\210b|\221l\\amJt\243pD|\202qXZ6K\207\212)w@\230\202\201Z\2235(\202q}\207\221dncQt\244n9j\217wb\\Ig~\2464ovVO\213Rnz3l\177\315\227Ic`N\2104\207k[T_^jubnmwt\177x\200WM\201\231&\030\214Z\202\201sqStIp\300s9x\210qKJ\'A\225\205?kS\251\212|g\232,\035\202p\225\201\223jfeDn\301k/f\234xUU@o\205\244Fb\202cY\220Tpx*iy\341\220Kq\\P\2063\222jNRe^akfuqryxy}ZI\217\227;)\220R\206kp\205Z|Dk\270o;\203\217w=> I\246\177Wfa\246\221ys\2347-\205j\225j\222xmjDj\275c3g\245{JHD\200\210\240`^\210l_\216`m\203;ik\333\177G\205dT\207-\211hTWj\\Sgm\200tq\210z\200xSJ\226\210VM\232DzUf\230^\220Ph\255sU\215\222x;6-O\266xu_c\242\221qu\225CM\210W\204V\212\202xtHb\262aOp\247}PFK\200\233\221}N\204jb\217oh\210Yj^\271q?\214jV\2131\200bgVn_Vjy\216tc\221u\205rPI\226|qu\2479iUV\253f\245Ra\242rw\230\220~G-7^\315n\210Ze\232\211hv\216Tp\215Oj\\t\225~\203EW\245\\mu\237\200ZCP\207\241~\201J}d`\213sh\221ulU\215u/\237n_\204){^}`nd\\a\203\230y^\222u\205\201T@f\222|\177\241vg\222W;\246\177mnm}\242\227n\256\227\221]\247jyh{4\211sS@\177j~\204r[r{b\230~QiX\177\230|r\221\215\203c\212tuUi^]Q^G_{vn~v\177aPjbiBb|\211cem\207\213h\204g^cqe|F6gylp~ok\220Q7\211jala}\212\210b\234\211\211Y\215_vX\210-\207qc<riyunepw]\205kZnN\177\213oh\203\207\177dze\177SxcZDk=Z\204sb}\215\201YM^UwE[z\204[Ub\205\212lya`p\203nvI<f\205V^umq\220SB|dZsl\203o\201`\213|\200Jve}8\210*\204jr/yWisnnwx^\177^Zw[\201kmj\177\200v[lh\216=}kS?z,^\202kev\235\211IT_L\204AaztVPf\201\206msbfj\204oyHEk\2208Cvky\214aModPr\215\211Lym\177gv8Yu\206\"\2072\211u};\214EQx\200\177\203\201[w_Zp\177|Kes}ssUbo\233+~oPD\2052f{Uf\206\303\226FZ[N\214;xy`TSb|\202gsfng\206vzQEx\222\030+\203b\201\216laYs@k\252\211/z\177nSd!G\211\217\032s1\224\200zH\232-4~~\215\211\212hodAm\247}(e\207y[iB]y\250%lnWP\2067nk>l\200\345\224En\\Q{\'\212sLR[^gx[trqe~o\200]B\201\234\032\035\211]\211zqwLu;k\277\204\"u\214p>W\023A\230\212<fA\235\212wZ\240#(\202\201\240|\215shg9i\301u\030d\223zK^<d}\253BZxe[\206Aqq5j\177\377\217J}VR~$\215q@Se]Ylauossut}`?\211\230-+\223T\210]n\217T\2109g\306\1771\202\222u2A\020F\265\200`\\M\242\223mj\244+/\211t\236]\210~mm-a\307o*h\246|BJ?o\214\242iRzld\211Sqt=ls\363uG\215`]{$\217kKRs_Odl\202qs\203otyW>\215\200LM\237DyE_\235P\232>f\270\204T\211\223s48\037L\305x}UT\243\214eh\232<J\210Z\205I~\204n{1[\276kPl\246|FCJ}\222\216|Huo\\\206]jzVl`\302g<\226__{&\212hdVqbOb~\212rj\212p{mN8\225pbp\2504dJQ\267T\264=Y\247}z\223\214vC,3U\323m\204JQ\221\206Zi\216Cj\213MjSn\230t\214-G\255drq\227~W>U|\240\200}=md\\\177eg\200qmV\225o*\252djs\027\203a}\\oa\\`\206\217{_\212iw\204RMl\221\202\177\247ph\221[8\245\202lzo\206\241\230h\262\231\225l\250rzj\204N\211t[J|h~\213vdr\200a\232\200PqZ\205\222\200n\223\224\211o\207qmWmi]PbTdxspwx\212cWjdeJ`~\203c_n\206\215o\203j\\bsr}HEl\202tt\207pm\214W>\222pevd\207\207\213X\240\206\213f\223kx]\217F\213ukHycyx}lt}]\214nYrR~~q_\212\207\213p|kyQysXDpJY\202uh}\212\204]VaVvL^vz_Of\177\206r}e^n~tzKMq\211clynt\213[C\212ifyi\216j\205Z\222w\210V\203p|D\220C\201vx@|Xts\202st\201_\220d^v[\203hmc\207|\204iui\210@|sQF\200Aa\202uey\237\212RXeO\202Ic{mYKf|\207tydcg\203ytNVz\232M\\\204jw\211cT\204n_}\210\226M\203j\206d\204Ks\200\202<\215J\177|\204H\222Obx\224\202}\202^\216g^s\204\203Dnl\203o\210cqt\223;~\177OJ\216Ag\200il\217\271\222OefS\216Gw\177[VSfs\210nyjil\206~{[T\202\232@J\204i}\201nnpzNx\245\2233\200\177zKy9b\230\2078|F\215\207~Q\235@T}\217\212~\207o\202jPq\243\202-l\202}\\zZk\200\235;rvVV\214Glx_i\210\325\224KvdV\2025\210tIY^b^\204ivtom|v|cP\213\237>E\217f\204nt\204f\211Iu\270\230*\177\212x4l&V\253\211ZkL\222\216v]\251>J\204\223\230o\214y{rCm\300|#i\225{HnOs\210\235[_{dc\212QpxWk\213\344\204R\212^Y\2012\220tAZm`Owl\200vswsx\177eH\226\227MN\236b\203Qm\225c\233Eq\274\2147\212\232|$T)\\\306\200w`R\233\230nl\250BN\213\207\222W\211\201y\2008h\305u1o\245\202?YT\177\223\234uSwli\207aq{^n\210\333rN\227c_y1\221nHY|cJpv\210xw\203nvu^C\233\207bg\245Ou=b\251[\262Hg\254\222W\224\236{/C9\\\327x\213WX\224\222dr\236J`\214t\203D|\211}\2129Y\273pTt\251\203DOe\206\235\213\204Guoh\202fl~oqv\266a?\235jdz,\211mbZ~cJh\211\217zk\211myoUD\231lo\204\246Bd?W\276_\307H]\234\226{\234\224zB2D^\345p\215MW\214\211Xq\222Ix\221`gIn\231}\233+E\250ot{\240\202YGi\201\257{\204;ned\177me\204~mg\211g3\253iqr\033\204i{fud[b\222\225\200_\203hv\201V\\r\217\207\206\270ii\217g;\247\213v\203l\215\231\232g\276\227\233~\245u~o\216]\206naQ\201b\200\222oaq\207`\233\213Np]\207\207\177l\231\220\222}\207woVtm^K_ccsxzsk\213lVoe]Pb\201{g\\s\207\216y\203m]Xvq}MSx\203y\177\232km\205]D\225|f\200i\222\202\216X\253\205\221u\225su]\216S\201ldMz\\\201\200uho~`\221wUpU\201tw\\\220\205\215t\200ntHtqTDkY^v{mx\177\207\\\\gYjNa{u]Hk\200\215x|h[\\vyuMTy\207o\201\215iq}`K\214yg\203k\232n\210V\243r\214b\200\200yQ\225U}urF~[\200{zqp\202b\220o]uY\210cq[\217y\207rsr{A~vNAzL_{\204ht\213\202[d_TxJ_\200m\\Bhx\210wwg[`~ytP^~\217l\200\213cvwf^\204}h\203{\244P\203`\216d\211Wk\222|L\222V{u}O\212U\200z\204}o\202i\217oaps\210Ko_\204n\213hlz\205=\202\177HC\206Le\201\203h\204\235\207XteX\201Iq\203`ZHfr\207rvmbi\205|tXV\207\214ay\213Zujisq\213\\|\213\240E\205p~M}B_\243\200Q\205O\200\202wT\221Px|\177~l\201s\204sRl\211\201@ov\202[|Tc\203\214DxsMP\201Nfz\177ix\250\202R\177]\\\2005wzU[Wba\200jwwfn|rxdQ\216\215`w\222ZsXm\211l\230Ux\230\237E\211\204{;m1L\264\177duM\212\211q]\233Kv\201\202\207b\202|~|Gc\233~<o\200~IsJc\207\217XiqZ]\177Wfz|h\201\253sS\225][|5\205qR]aaU|eyvlustveK\227\211gx\235TsBb\240k\257Nr\227\232S\216\217\177.W0I\316wxlP\220\220dg\236Lu\210~\206Jz\204\205\206:[\250zKu\224\204C_Pm\225\211d[ldg\177el||o~\250cH\242ggw/\211sZ`pcOps\201|hyqqr\\F\232si\205\244@l7`\253^\277Hi\213\235h\226\222z3J:J\330o~_P\215\212Zl\225H~\214brAs\212}\217.P\235zcz\227\202LQZt\241}mKdea|khy\212nh\222ZA\244hfn1\201vkdweOh\177\210z^zkrmS=\230dl\233\2555]7R\300_\323D`\210\241\205\241\215~F??G\335e}ZP\210\205Kn\212?\210\221V]Hg\231\202\237\035D\224w{\201\215\205[O^k\250piA\\_[rngv\216s`r\\5\261ktg\037\177p~jof`f\212\205\201Wrhm\211]i~\227\210\217\317j_\207q@\265\230v\220m\223\217\242s\315\234\236\221\243z\204s\217n\206ya`\207_\213\236vXq\215d\251\231K\177]\212y\210s\250\220\231\210\215{tPuti[`}ii{\177nY\211wXrnXcc\205qmf{\211\222\210\211maRov\203RY\177\210|\220\262de\200iG\244\216l\217d\226|\230c\302\205\227\204\215y}j\215g\206t`^~T\206\212s`j\205f\241\211I~\\\206m}d\240\202\227\207\205vwGquaPeuco\177vki\203pcne]bb}fh[s}\224\205\200n_Wry{M^\202\206x\222\244bgyhX\236\217m\222c\240r\231`\270y\223|}\201\201b\222d|shV\201W\214\205wch\205k\237\202TzV\211a}`\237y\220~qt{BwyZLqlfs\210kks\200engaoZ^\177icStx\220\203uh`^v|tPe\207\211w\227\240[jhqn\231\226t\225r\253c\221g\245i\213kd\230\202d\220k|zrY\216Z\216\204zjc\212q\244\202\\wf\217Uxa\230m\217ug\201\200F|{QI\200ki}\217on\202~j~ib~\\h\201cfVoq\213|npbk~\201uX_\221\212t\230\244Rd^l\203\212\245k\214s\252_\224q\225X\200ZS\262\201g\213`x}q^\225R\222\210ueY\205|\230\215Wrs\205Qzr\217[\200a^\214\205KzqOR\177dj{\217od\203v_\212eb|Hqx_e\\kg\205rpydl|zw_[\226\207u\232\246NdPm\234\201\264g\204w\246c\225\200\217GpJ?\302\200s\204a\201\206gi\231R\224\212pgU\201\207\216\220Kk\201\205S{y\215WwWY\223\205Ysv^]\177ol|\223oj\204h_\232ajyHxu]geha\177mo|gmzwr`U\234~v\240\255EcBb\256\203\307Xy}\240n\236\212\215>^E8\323v{}Z\204\214`r\233O\223\216mjHw\217\233\232;_\213}_\201\211\220MdTY\240\204Yil`e{zmz\223oj\203\\T\246lrt?~tblmi\\qpt~jmxtr\\P\240us\251\2616_<c\276s\335Pw}\243~\244\214\215@OJ8\357o{r\\\204\211Vv\224F\233\223\\`Bp\223\220\243*W\213zt\210\213\221XZ__\261v[Wegdu\202jw\232u]sWO\251pvk=\177trmpjXi\201v\202^iuvpRH\242kr\264\271.R9W\317n\354Ho\177\255\212\256\205\216KDP7\360f|f\\\205\204G|\221@\235\231OQKd\243\215\264\021M\217\203\177\215\206\220aRb^\271dWG_b]p\206kp\235|U^[D\265u\200^.\202xyvlncf\205y\206Qbir"
      }
    }
  }
}
node {
  name: "transformer/contract/conv1/weights_min"
  op: "Const"
  attr {
    key: "dtype"
    value {
      type: DT_FLOAT
    }
  }
  attr {
    key: "value"
    value {
      tensor {
        dtype: DT_FLOAT
        tensor_shape {
        }
        float_val: -0.695031344891
      }
    }
  }
}
node {
  name: "transformer/contract/conv1/weights_max"
  op: "Const"
  attr {
    key: "dtype"
    value {
      type: DT_FLOAT
    }
  }
  attr {
    key: "value"
    value {
      tensor {
        dtype: DT_FLOAT
        tensor_shape {
        }
        float_val: 0.897573590279
      }
    }
  }
}
node {
  name: "transformer/contract/conv1/convolution_eightbit_reshape_dims"
  op: "Const"
  attr {
    key: "dtype"
    value {
      type: DT_INT32
    }
  }
  attr {
    key: "value"
    value {
      tensor {
        dtype: DT_INT32
        tensor_shape {
          dim {
            size: 1
          }
        }
        int_val: -1
      }
    }
  }
}
node {
  name: "transformer/contract/conv1/convolution_eightbit_reduction_dims"
  op: "Const"
  attr {
    key: "dtype"
    value {
      type: DT_INT32
    }
  }
  attr {
    key: "value"
    value {
      tensor {
        dtype: DT_INT32
        tensor_shape {
          dim {
            size: 1
          }
        }
        int_val: 0
      }
    }
  }
}
node {
  name: "transformer/contract/conv1/convolution_eightbit_reshape_transformer/contract/MirrorPad"
  op: "Reshape"
  input: "transformer/contract/MirrorPad"
  input: "transformer/contract/conv1/convolution_eightbit_reshape_dims"
  attr {
    key: "T"
    value {
      type: DT_FLOAT
    }
  }
}
node {
  name: "transformer/contract/conv1/convolution_eightbit_min_transformer/contract/MirrorPad"
  op: "Min"
  input: "transformer/contract/conv1/convolution_eightbit_reshape_transformer/contract/MirrorPad"
  input: "transformer/contract/conv1/convolution_eightbit_reduction_dims"
  attr {
    key: "T"
    value {
      type: DT_FLOAT
    }
  }
  attr {
    key: "keep_dims"
    value {
      b: false
    }
  }
}
node {
  name: "transformer/contract/conv1/convolution_eightbit_max_transformer/contract/MirrorPad"
  op: "Max"
  input: "transformer/contract/conv1/convolution_eightbit_reshape_transformer/contract/MirrorPad"
  input: "transformer/contract/conv1/convolution_eightbit_reduction_dims"
  attr {
    key: "T"
    value {
      type: DT_FLOAT
    }
  }
  attr {
    key: "keep_dims"
    value {
      b: false
    }
  }
}
node {
  name: "transformer/contract/conv1/convolution_eightbit_quantize_transformer/contract/MirrorPad"
  op: "QuantizeV2"
  input: "transformer/contract/MirrorPad"
  input: "transformer/contract/conv1/convolution_eightbit_min_transformer/contract/MirrorPad"
  input: "transformer/contract/conv1/convolution_eightbit_max_transformer/contract/MirrorPad"
  attr {
    key: "T"
    value {
      type: DT_QUINT8
    }
  }
  attr {
    key: "mode"
    value {
      s: "MIN_FIRST"
    }
  }
}
node {
  name: "transformer/contract/conv1/convolution_eightbit_quantized_conv"
  op: "QuantizedConv2D"
  input: "transformer/contract/conv1/convolution_eightbit_quantize_transformer/contract/MirrorPad"
  input: "transformer/contract/conv1/weights_quint8_const"
  input: "transformer/contract/conv1/convolution_eightbit_quantize_transformer/contract/MirrorPad:1"
  input: "transformer/contract/conv1/convolution_eightbit_quantize_transformer/contract/MirrorPad:2"
  input: "transformer/contract/conv1/weights_min"
  input: "transformer/contract/conv1/weights_max"
  attr {
    key: "Tfilter"
    value {
      type: DT_QUINT8
    }
  }
  attr {
    key: "Tinput"
    value {
      type: DT_QUINT8
    }
  }
  attr {
    key: "out_type"
    value {
      type: DT_QINT32
    }
  }
  attr {
    key: "padding"
    value {
      s: "VALID"
    }
  }
  attr {
    key: "strides"
    value {
      list {
        i: 1
        i: 1
        i: 1
        i: 1
      }
    }
  }
}
node {
  name: "transformer/contract/conv1/convolution_eightbit_requant_range"
  op: "RequantizationRange"
  input: "transformer/contract/conv1/convolution_eightbit_quantized_conv"
  input: "transformer/contract/conv1/convolution_eightbit_quantized_conv:1"
  input: "transformer/contract/conv1/convolution_eightbit_quantized_conv:2"
  attr {
    key: "Tinput"
    value {
      type: DT_QINT32
    }
  }
}
node {
  name: "transformer/contract/conv1/convolution_eightbit_requantize"
  op: "Requantize"
  input: "transformer/contract/conv1/convolution_eightbit_quantized_conv"
  input: "transformer/contract/conv1/convolution_eightbit_quantized_conv:1"
  input: "transformer/contract/conv1/convolution_eightbit_quantized_conv:2"
  input: "transformer/contract/conv1/convolution_eightbit_requant_range:0"
  input: "transformer/contract/conv1/convolution_eightbit_requant_range:1"
  attr {
    key: "Tinput"
    value {
      type: DT_QINT32
    }
  }
  attr {
    key: "out_type"
    value {
      type: DT_QUINT8
    }
  }
}
node {
  name: "transformer/contract/conv1/convolution"
  op: "Dequantize"
  input: "transformer/contract/conv1/convolution_eightbit_requantize"
  input: "transformer/contract/conv1/convolution_eightbit_requantize:1"
  input: "transformer/contract/conv1/convolution_eightbit_requantize:2"
  attr {
    key: "T"
    value {
      type: DT_QUINT8
    }
  }
  attr {
    key: "mode"
    value {
      s: "MIN_FIRST"
    }
  }
}
node {
  name: "transformer/contract/conv1/InstanceNorm/moments/sufficient_statistics/Square"
  op: "Square"
  input: "transformer/contract/conv1/convolution"
  attr {
    key: "T"
    value {
      type: DT_FLOAT
    }
  }
}
node {
  name: "transformer/contract/conv1/InstanceNorm/moments/sufficient_statistics/var_ss/reduction_indices"
  op: "Const"
  attr {
    key: "dtype"
    value {
      type: DT_INT32
    }
  }
  attr {
    key: "value"
    value {
      tensor {
        dtype: DT_INT32
        tensor_shape {
          dim {
            size: 2
          }
        }
        tensor_content: "\001\000\000\000\002\000\000\000"
      }
    }
  }
}
node {
  name: "transformer/contract/conv1/InstanceNorm/moments/sufficient_statistics/var_ss"
  op: "Sum"
  input: "transformer/contract/conv1/InstanceNorm/moments/sufficient_statistics/Square"
  input: "transformer/contract/conv1/InstanceNorm/moments/sufficient_statistics/var_ss/reduction_indices"
  attr {
    key: "T"
    value {
      type: DT_FLOAT
    }
  }
  attr {
    key: "Tidx"
    value {
      type: DT_INT32
    }
  }
  attr {
    key: "keep_dims"
    value {
      b: true
    }
  }
}
node {
  name: "transformer/contract/conv1/InstanceNorm/moments/sufficient_statistics/Shape"
  op: "Shape"
  input: "transformer/contract/conv1/convolution"
  attr {
    key: "T"
    value {
      type: DT_FLOAT
    }
  }
  attr {
    key: "out_type"
    value {
      type: DT_INT32
    }
  }
}
node {
  name: "transformer/contract/conv1/InstanceNorm/moments/sufficient_statistics/Cast"
  op: "Cast"
  input: "transformer/contract/conv1/InstanceNorm/moments/sufficient_statistics/Shape"
  attr {
    key: "DstT"
    value {
      type: DT_FLOAT
    }
  }
  attr {
    key: "SrcT"
    value {
      type: DT_INT32
    }
  }
}
node {
  name: "transformer/contract/conv1/InstanceNorm/moments/sufficient_statistics/Gather/indices"
  op: "Const"
  attr {
    key: "dtype"
    value {
      type: DT_INT32
    }
  }
  attr {
    key: "value"
    value {
      tensor {
        dtype: DT_INT32
        tensor_shape {
          dim {
            size: 2
          }
        }
        tensor_content: "\001\000\000\000\002\000\000\000"
      }
    }
  }
}
node {
  name: "transformer/contract/conv1/InstanceNorm/moments/sufficient_statistics/Gather"
  op: "Gather"
  input: "transformer/contract/conv1/InstanceNorm/moments/sufficient_statistics/Cast"
  input: "transformer/contract/conv1/InstanceNorm/moments/sufficient_statistics/Gather/indices"
  attr {
    key: "Tindices"
    value {
      type: DT_INT32
    }
  }
  attr {
    key: "Tparams"
    value {
      type: DT_FLOAT
    }
  }
  attr {
    key: "validate_indices"
    value {
      b: true
    }
  }
}
node {
  name: "transformer/contract/conv1/InstanceNorm/moments/sufficient_statistics/Const"
  op: "Const"
  attr {
    key: "dtype"
    value {
      type: DT_INT32
    }
  }
  attr {
    key: "value"
    value {
      tensor {
        dtype: DT_INT32
        tensor_shape {
          dim {
            size: 1
          }
        }
        int_val: 0
      }
    }
  }
}
node {
  name: "transformer/contract/conv1/InstanceNorm/moments/sufficient_statistics/count"
  op: "Prod"
  input: "transformer/contract/conv1/InstanceNorm/moments/sufficient_statistics/Gather"
  input: "transformer/contract/conv1/InstanceNorm/moments/sufficient_statistics/Const"
  attr {
    key: "T"
    value {
      type: DT_FLOAT
    }
  }
  attr {
    key: "Tidx"
    value {
      type: DT_INT32
    }
  }
  attr {
    key: "keep_dims"
    value {
      b: false
    }
  }
}
node {
  name: "transformer/contract/conv1/InstanceNorm/moments/sufficient_statistics/mean_ss/reduction_indices"
  op: "Const"
  attr {
    key: "dtype"
    value {
      type: DT_INT32
    }
  }
  attr {
    key: "value"
    value {
      tensor {
        dtype: DT_INT32
        tensor_shape {
          dim {
            size: 2
          }
        }
        tensor_content: "\001\000\000\000\002\000\000\000"
      }
    }
  }
}
node {
  name: "transformer/contract/conv1/InstanceNorm/moments/sufficient_statistics/mean_ss"
  op: "Sum"
  input: "transformer/contract/conv1/convolution"
  input: "transformer/contract/conv1/InstanceNorm/moments/sufficient_statistics/mean_ss/reduction_indices"
  attr {
    key: "T"
    value {
      type: DT_FLOAT
    }
  }
  attr {
    key: "Tidx"
    value {
      type: DT_INT32
    }
  }
  attr {
    key: "keep_dims"
    value {
      b: true
    }
  }
}
node {
  name: "transformer/contract/conv1/InstanceNorm/moments/normalize/divisor"
  op: "Reciprocal"
  input: "transformer/contract/conv1/InstanceNorm/moments/sufficient_statistics/count"
  input: "^transformer/contract/conv1/InstanceNorm/moments/sufficient_statistics/mean_ss"
  input: "^transformer/contract/conv1/InstanceNorm/moments/sufficient_statistics/var_ss"
  attr {
    key: "T"
    value {
      type: DT_FLOAT
    }
  }
}
node {
  name: "transformer/contract/conv1/InstanceNorm/moments/normalize/Mul"
  op: "Mul"
  input: "transformer/contract/conv1/InstanceNorm/moments/sufficient_statistics/var_ss"
  input: "transformer/contract/conv1/InstanceNorm/moments/normalize/divisor"
  attr {
    key: "T"
    value {
      type: DT_FLOAT
    }
  }
}
node {
  name: "transformer/contract/conv1/InstanceNorm/moments/normalize/mean"
  op: "Mul"
  input: "transformer/contract/conv1/InstanceNorm/moments/sufficient_statistics/mean_ss"
  input: "transformer/contract/conv1/InstanceNorm/moments/normalize/divisor"
  attr {
    key: "T"
    value {
      type: DT_FLOAT
    }
  }
}
node {
  name: "transformer/contract/conv1/InstanceNorm/moments/normalize/Square"
  op: "Square"
  input: "transformer/contract/conv1/InstanceNorm/moments/normalize/mean"
  attr {
    key: "T"
    value {
      type: DT_FLOAT
    }
  }
}
node {
  name: "transformer/contract/conv1/InstanceNorm/moments/normalize/variance"
  op: "Sub"
  input: "transformer/contract/conv1/InstanceNorm/moments/normalize/Mul"
  input: "transformer/contract/conv1/InstanceNorm/moments/normalize/Square"
  attr {
    key: "T"
    value {
      type: DT_FLOAT
    }
  }
}
node {
  name: "transformer/contract/conv1/InstanceNorm/batchnorm/add/y"
  op: "Const"
  attr {
    key: "dtype"
    value {
      type: DT_FLOAT
    }
  }
  attr {
    key: "value"
    value {
      tensor {
        dtype: DT_FLOAT
        tensor_shape {
        }
        float_val: 9.99999974738e-06
      }
    }
  }
}
node {
  name: "transformer/contract/conv1/InstanceNorm/batchnorm/add"
  op: "Add"
  input: "transformer/contract/conv1/InstanceNorm/moments/normalize/variance"
  input: "transformer/contract/conv1/InstanceNorm/batchnorm/add/y"
  attr {
    key: "T"
    value {
      type: DT_FLOAT
    }
  }
}
node {
  name: "transformer/contract/conv1/InstanceNorm/batchnorm/Rsqrt"
  op: "Rsqrt"
  input: "transformer/contract/conv1/InstanceNorm/batchnorm/add"
  attr {
    key: "T"
    value {
      type: DT_FLOAT
    }
  }
}
node {
  name: "style_num"
  op: "Placeholder"
  attr {
    key: "dtype"
    value {
      type: DT_FLOAT
    }
  }
  attr {
    key: "shape"
    value {
      shape {
        dim {
          size: 26
        }
      }
    }
  }
}
node {
  name: "transformer/contract/conv1/InstanceNorm/Reshape_1/shape"
  op: "Const"
  attr {
    key: "dtype"
    value {
      type: DT_INT32
    }
  }
  attr {
    key: "value"
    value {
      tensor {
        dtype: DT_INT32
        tensor_shape {
          dim {
            size: 2
          }
        }
        tensor_content: "\032\000\000\000\001\000\000\000"
      }
    }
  }
}
node {
  name: "transformer/contract/conv1/InstanceNorm/Reshape_1_eightbit_reshape_dims"
  op: "Const"
  attr {
    key: "dtype"
    value {
      type: DT_INT32
    }
  }
  attr {
    key: "value"
    value {
      tensor {
        dtype: DT_INT32
        tensor_shape {
          dim {
            size: 1
          }
        }
        int_val: -1
      }
    }
  }
}
node {
  name: "transformer/contract/conv1/InstanceNorm/Reshape_1_eightbit_reduction_dims"
  op: "Const"
  attr {
    key: "dtype"
    value {
      type: DT_INT32
    }
  }
  attr {
    key: "value"
    value {
      tensor {
        dtype: DT_INT32
        tensor_shape {
          dim {
            size: 1
          }
        }
        int_val: 0
      }
    }
  }
}
node {
  name: "transformer/contract/conv1/InstanceNorm/Reshape_1_eightbit_reshape_style_num"
  op: "Reshape"
  input: "style_num"
  input: "transformer/contract/conv1/InstanceNorm/Reshape_1_eightbit_reshape_dims"
  attr {
    key: "T"
    value {
      type: DT_FLOAT
    }
  }
}
node {
  name: "transformer/contract/conv1/InstanceNorm/Reshape_1_eightbit_min_style_num"
  op: "Min"
  input: "transformer/contract/conv1/InstanceNorm/Reshape_1_eightbit_reshape_style_num"
  input: "transformer/contract/conv1/InstanceNorm/Reshape_1_eightbit_reduction_dims"
  attr {
    key: "T"
    value {
      type: DT_FLOAT
    }
  }
  attr {
    key: "keep_dims"
    value {
      b: false
    }
  }
}
node {
  name: "transformer/contract/conv1/InstanceNorm/Reshape_1_eightbit_max_style_num"
  op: "Max"
  input: "transformer/contract/conv1/InstanceNorm/Reshape_1_eightbit_reshape_style_num"
  input: "transformer/contract/conv1/InstanceNorm/Reshape_1_eightbit_reduction_dims"
  attr {
    key: "T"
    value {
      type: DT_FLOAT
    }
  }
  attr {
    key: "keep_dims"
    value {
      b: false
    }
  }
}
node {
  name: "transformer/contract/conv1/InstanceNorm/Reshape_1_eightbit_quantize_style_num"
  op: "QuantizeV2"
  input: "style_num"
  input: "transformer/contract/conv1/InstanceNorm/Reshape_1_eightbit_min_style_num"
  input: "transformer/contract/conv1/InstanceNorm/Reshape_1_eightbit_max_style_num"
  attr {
    key: "T"
    value {
      type: DT_QUINT8
    }
  }
  attr {
    key: "mode"
    value {
      s: "MIN_FIRST"
    }
  }
}
node {
  name: "transformer/contract/conv1/InstanceNorm/Reshape_1_eightbit_quantized_reshape"
  op: "QuantizedReshape"
  input: "transformer/contract/conv1/InstanceNorm/Reshape_1_eightbit_quantize_style_num"
  input: "transformer/contract/conv1/InstanceNorm/Reshape_1/shape"
  input: "transformer/contract/conv1/InstanceNorm/Reshape_1_eightbit_quantize_style_num:1"
  input: "transformer/contract/conv1/InstanceNorm/Reshape_1_eightbit_quantize_style_num:2"
  attr {
    key: "T"
    value {
      type: DT_QUINT8
    }
  }
}
node {
  name: "transformer/contract/conv1/InstanceNorm/Reshape_1"
  op: "Dequantize"
  input: "transformer/contract/conv1/InstanceNorm/Reshape_1_eightbit_quantized_reshape"
  input: "transformer/contract/conv1/InstanceNorm/Reshape_1_eightbit_quantized_reshape:1"
  input: "transformer/contract/conv1/InstanceNorm/Reshape_1_eightbit_quantized_reshape:2"
  attr {
    key: "T"
    value {
      type: DT_QUINT8
    }
  }
  attr {
    key: "mode"
    value {
      s: "MIN_FIRST"
    }
  }
}
node {
  name: "transformer/contract/conv1/InstanceNorm/gamma"
  op: "Const"
  attr {
    key: "dtype"
    value {
      type: DT_FLOAT
    }
  }
  attr {
    key: "value"
    value {
      tensor {
        dtype: DT_FLOAT
        tensor_shape {
          dim {
            size: 26
          }
          dim {
            size: 32
          }
        }
        tensor_content: "MQ\265>\\\234\026?\013\321_?)\352o?\0238a?\202\203\243?\360M\257?\210\323A?\024!y?\255\234\250?n\036_?\031\201k?\352\264]?`\363,?\375\263\215?\306({?!{\004?\\\"\202?\201o\023?\220\252\237?\262l\224?\264\370\032?\\\253w?Zh`?\304\337\030?\256c\036?a\257\021?\256v\007?\341\026\204>s]\216?\317B\031?\2049a?\034\301\026?>dT?c\345\224?\346\327D?CT\234?\254\231X?\312\010\227?\332;\273?\344l\202?m\275\002?\221}D?H\177+?\374l\206?\005\360\214?M&\312?e\204\204?S\016\020?\034\030~?\004\351\202?J=\246?B{\227?NUM?&l\276?\021\305\214?\354\352e?\260&\202?Ho\006?\354\236\310?\001\0064?\007\224N?\364 \234>\223\324`?\363\001\020?\035\2271?HzQ?$HM?\364m\211?-\212\211?*\224\257?\021\235(?\221\002\227?\330\370\262?]Q:?\340\\}?9\352q?s\273J?\023\247]?\032d\261?\332\331P?Rb\227?\200\207\242> \\\275?Z~|?Fy\005?\036\317R?e\226v?7h\003?\367\0256?\221 \265>\377\3610?\300U\023?\375C\253?\342\2228?\'\2364?\257\203X?\375\355\237?%\0014?\t\016Y?D\323Q?#\275$?\207\320\177?\363\256S?\364\037T?\376\367??\2352[?\264{\200?AF\260?\306\261-?\"\220W?\\\323C?\007\267r?fQG?\262\030<?:e\200?e\220P?\301\225\032?8\365P?\341\256\211?\r\320\216?\301(3?\252o1?\177>Y?n\232O?%\301\"?h\361\026?\336\022J?\331\234,?TJ\354>N*\233?rUR?\213\206h?o\257\253?\355\267\244?h[`?b/\217?\220\360\252?\214\316.?\214\245\024?U\217x?\3166U?\260\274\223?J%\331?\274\3158?\242\232\226?)\233\023?\365\337s?G1\200?\333\366 ?\210\306:?>T_?\361\374\007?\233Zq?\200\336\304>ru\206?\251\326\036?HE\267?hBL?}\016g?\034\320\256>\237\224K?\004\215F?`Et?\252Mf?#x\207?\302\315\245?\304Sx?\206\300W?\220\236\217?\271 .?\270\255U?-\030\234?\220\310[?w\317\214?G\320\200?\365\274\332>\304_\205?\202D\022?/\004\223?\306\267\220?B\212*?s\343\\?\306\245\200?W\"\035?\221k%?AP\232>\311\266Y?\231c\322>\256^\202?\306\235\026?f\3148?N\207\274>c\364\335>p]\340>\222\354\014?\365\2247?\364\336:?\254a\326?\243I\251>_\020{?[\356\"?s\003\022?b\013G?\024\261\254?\365\252\326>\032\2173?\363j\365>\233y-?\323\213\264?\207@F?\316\211\231?|\001\321<\362\264\256>^\377\300>\301\021\205?\324=\356>\241\243R?Ue\230>\026m\231>_\021_>%x\241?\204\353\205>1\265\346>\271\021\343>Gw\353>\315\363\233?\213\353??}\207\275?\224sU?o\"\236?\004\224\306?\017>j?cD:?\026\201*?/\372D?\034\031W?\022\226\236?,\034\261?\277\024\246?\013\2065?\245\344\207?\003\0011?\233al?88\212?\362B\016?{]\342?>\262W?\265#w?\373*\205?w\0133?\362\320\230?\366C\024?t\331a?B\256=?\177\224T?Q\360)?Y\301\013?\n\221d?\215\314a?\032\343l?\'\333g?>\324\301?\212\304]?\251\270\214?\032\036\244?\272\021f?\256L\236>\360y\221?!\264L?\204\224e?\2001\251?\342d:?^@\217?\014\206M?_\004\244?\372(\244?\234~\036?\373\005P?\'\017\201?\301\255\033?\264\323N?J \035?e\326=?\231_2?b\010b?\235\322\026?\230\375\010?\232OB?\252\271 ?\033W)?\272]k?\016\206e?\257\333U?\262\374\333?*\366w?\256Wi?\326\275\241?G\210\022?\226x,?\020h\243?Y/\216?\004\3001?\232\372\223>\277\360\252>xA4?\263l\330>\305.\'?\260>\257?k\320\001?\313\317\211?\007s\213?\001R\n?\344H\006?Q\333\357><@\021?\r5%>J\253&?\020}\230>\311\253\016?Q\337\351>\341\237\001?\320\241y?!P|?I\263e?|\225\275?\350\346\301?\335ub?$p[?\014Jv?\304\304\034?\365:B?\2335r?3|\010?l\362N?\244\273L?\341=\245>>\311\245?\315\345W?d\027\220?z]\224?.\033\335>1\247O?\217-\215?%\326\r?2m\367>1\020\233>\370GO?\331^c=Pt\233?Mf[>Z\212[?q\253\310>\341v\017?\356\314\313>\364\237\234?\020\271\247?I.>?B\272\375?I\211@?\3441h?\036\221\234?:\013y?,\2736?\263mc?T@U?\341\355o?\243w\010?\226\266\024?\267\373\226?\\\331Y?W\274\257?\"R\223?[\355\014?\246KT?\241Qh?\013\214\367>l\343<?\3343\362>>\300_?f1h=\203\255^?Q+\r?;f\004?\333\317\266=\tGF?\373\003\\?\300\306\215?M\217??T\340\272?Um\253?\333\261\017?\332\331d?x\320\253?\237\2662?\372\014o?Z.\212?\020%\n?P\322p?\273\315W?\324=\003?\364~{?\357;\022?\277\341\221?&\371\220?\367\2348?\034\244_?\313\003K?\337\2031?3\006\325>\336\036\203>a\020\213>gK\010>\210\021\222?\'^#?\213bI?\324\025\261>\375\324r?\3774U?\341\rk?c\221\256?\221\016W?\002i\267?-\314\247?\362Kb?\037P.?\246\265\200?\007]Y?\225\'\232?\t/\211?a\211\231?\270][?\262r\031?\023!\217?z\024\213?R\367\240?\232\321Z?t\222\366>\316\227\206?\026\225i?\200\310z?X\342N?8v\270>a\265\244?\243\354\357>o\010_?\333\235_?\353\206z?\356C\244>\377\354)?i$x?\021\255Y?\3216a?\234Fo?\024\365\340?*\351\023?\216\346h?y\345\200?\3408>?\177\036V?\027\344K?\227\261\243>w-C?\353s\004?O\365C?b\272\261?\325\303P?\232\232\252?\301\216\224?n\255\007?\251\275\376>oMw?\376\014\257>\343\2678?\rK\200>\347I\002?{\263\376=\255.O?\025g\306>\272\026\037?\026\3042?\346Z\020?\013\\\021?\257R)?\341\236y?\034\323(?\177\325\307?|+\230?3*\231?\267\271:?\301P\363>\300-<?g\360\254?(5b?\215M\202?mVE?\007)@?\213\221\224?EA\204?\351\236\271?\212\3657?\240\035\024?\215\022\211?\242^.?\027\341D?\344\202d?\326\217O?\303\254\244?\034\352*?9\237O?\337\341\032?\335\330q?}-\006?\300\272\017?i\360T?d\250c?\203\366\206?M\224\220?\253\312\323?_\274i? .b?EN\212?\t\322)?\212\232U?\2514\205?d\261\204?\206\340\207?\331\344o?\315\237\004?\206\023\205?\316\204\037?\375}r?K\002\261?\356\371\362>L\032b?\355\357U?N\202,?\373\030H?\357\371\024?L\353R?Q\247\247>C\266E?\307j\315>\241/3?3DA?\354\007v?\271\207\205?a\214\204?\351\301O?\034St?\336h\200?[|\027?/\270\207?\304\355??\330xQ?6\352%?\334\365\264?\360kY?a\301\026?\247\274[?|\327C?\220\000&?f\265\234?\322Ns?\036\375J?\273\2717?\205nB?T\341\210?\276\337\234?Tg\232?\000\373\201?\223GK?\213wB?f_\\?;v\260?\231K\213?\216!\316>tc\037?\t\332V=\375Y.?\335\254N?\274\254\020?\266\021\270?\252\223\002?\352\311\212?\n\320+?\362\251\205?\020kS?\275$\262?\032\261R?\300\241#?\220(\316>M\035&?.4\264?\216\241\203?\266\351\342?\300\236\204=\365a/?\004\337\271>Xv\207?\004\232\352>f\n\022?\334\006\366>C\tG?)\315\207>\221p\244?_\375\345>\221\216\310>\264L<?P\016\310>\224J\\?w\372o?.\'\234?\010\203Q?G\300\253?jF\217?-Zm?^\250\231?\247\374`?\304\341\202?\024\334\213?i\355k?u\300\224?\227\017z?#\216U?/\333v?+BJ?\3029\200?\034\201\214?\000{\313>!\r\212?ixp?V\343\'?\255\262H?[\252\347>U\330G?\376\030\275>\205\341\206?b]Q?9\247\002?\222t\322>\225\327\377>\274\243k?P\206\213?\3319y?\204\233\212?\354\374\264?\271\212\252?~\253H?\2709U?\014;L?\360\325\366>nF\232?\307!z?\206\377\214?&}!?,\177\202>=\033}?r\3446?kD\216?\300\346\202?~\267\004?n\210j?V]\232?\324\3248?X/!?\037\342\320>\n\214\221?\262v\303>4\236n?\037\331\327>Gx;?>\257\020?\323)\377>\354\314l?t_!?\362\002\201?<\365y?\3327\300?\321\227\233?\271\317\212?\341\001\217?\372\315>?z\314\017?\347\265\212?\373\345w?W\210\260?Q\244\212?\274\364\"?\371\307v?A\221j?\313\232\265?\251\225\275?\023\352I>\327\r[?\307,<?\337\324[?\376\364*?\255f\004?\276\247\235?\235(\033?\374DP?\004\241Z?\260\246/?\335\367\001>\3571\312>\320C[?\333+X?\033\214\202?\367\2147?\321\"\271?-[\223?\236\354\202?\330;K?\000\005s?\257\2037?\004\261\230?\351\266d?\257\354\222?{4\264?M\316r?\246Ht?\013\354\005?\350 \253?u\362+?\340\273\014>\203n\177?\243\331\224?2fn?\341\006=?\365\370\304>\375\035x?\306\325\367>\216\204Z?A\231??a\301\037?\207\202!=\221W\005?w\353\212?\216\231N?\312\275\251?\357\1771?|\020\230?\276\233w?\225\350\216?\372\020\222?\305Qf?\035=\236>\033\006D?\340\247&?\321PF?\237\374\254?\360\3457?ls\333?\311\343\251>\0252i?\370\300q?C.j>\320\262<?Z\201\366>l\330\003?\200\003\023?C\360\350>\237\201,?p\2707=\007i\205?\033\346E?dD\344>\331V\010?5W\326>m)K?\377\2171?\303\334`?\025\201\241?\0224\362?\222\0133?\371\217U?$\253\340>\352Ve?\273\325\014?t00?1\r\024?G\325\375>\2770o?\016\201\n?\227\261\267?\313o4?x\245v?\3201#<\213\243\373>\341\300\220>\016\371Y?\350_\340>\211\354 ?5\266\226>\360i\233?\216\214\035?\314)\201?\305`P?VE\217?\006\025\312>\261\r\030?\003\234\001?\331\224\222?\233\374H?\215\021{?a\373\354?\322\267U?\221my?4\367\252?\2246]?\327\2778?\203%\205?fR0?\316\304e?-i\313>>&\037?\340\274\211?{\365J?\205\230\200?}\340\213?\351\r/?\240 \'?\322+i?\2563\007?\375\251\016?\214\237@>\363\357\000?pA:>\371\255m?s\234\025?\275G\020?"
      }
    }
  }
}
node {
  name: "transformer/contract/conv1/InstanceNorm/mul_1"
  op: "Mul"
  input: "transformer/contract/conv1/InstanceNorm/Reshape_1"
  input: "transformer/contract/conv1/InstanceNorm/gamma"
  attr {
    key: "T"
    value {
      type: DT_FLOAT
    }
  }
}
node {
  name: "transformer/contract/conv1/InstanceNorm/Sum_1/reduction_indices"
  op: "Const"
  attr {
    key: "dtype"
    value {
      type: DT_INT32
    }
  }
  attr {
    key: "value"
    value {
      tensor {
        dtype: DT_INT32
        tensor_shape {
        }
        int_val: 0
      }
    }
  }
}
node {
  name: "transformer/contract/conv1/InstanceNorm/Sum_1"
  op: "Sum"
  input: "transformer/contract/conv1/InstanceNorm/mul_1"
  input: "transformer/contract/conv1/InstanceNorm/Sum_1/reduction_indices"
  attr {
    key: "T"
    value {
      type: DT_FLOAT
    }
  }
  attr {
    key: "Tidx"
    value {
      type: DT_INT32
    }
  }
  attr {
    key: "keep_dims"
    value {
      b: true
    }
  }
}
node {
  name: "transformer/contract/conv1/InstanceNorm/ExpandDims_2/dim"
  op: "Const"
  attr {
    key: "dtype"
    value {
      type: DT_INT32
    }
  }
  attr {
    key: "value"
    value {
      tensor {
        dtype: DT_INT32
        tensor_shape {
        }
        int_val: 1
      }
    }
  }
}
node {
  name: "transformer/contract/conv1/InstanceNorm/ExpandDims_2"
  op: "ExpandDims"
  input: "transformer/contract/conv1/InstanceNorm/Sum_1"
  input: "transformer/contract/conv1/InstanceNorm/ExpandDims_2/dim"
  attr {
    key: "T"
    value {
      type: DT_FLOAT
    }
  }
  attr {
    key: "Tdim"
    value {
      type: DT_INT32
    }
  }
}
node {
  name: "transformer/contract/conv1/InstanceNorm/ExpandDims_3/dim"
  op: "Const"
  attr {
    key: "dtype"
    value {
      type: DT_INT32
    }
  }
  attr {
    key: "value"
    value {
      tensor {
        dtype: DT_INT32
        tensor_shape {
        }
        int_val: 1
      }
    }
  }
}
node {
  name: "transformer/contract/conv1/InstanceNorm/ExpandDims_3"
  op: "ExpandDims"
  input: "transformer/contract/conv1/InstanceNorm/ExpandDims_2"
  input: "transformer/contract/conv1/InstanceNorm/ExpandDims_3/dim"
  attr {
    key: "T"
    value {
      type: DT_FLOAT
    }
  }
  attr {
    key: "Tdim"
    value {
      type: DT_INT32
    }
  }
}
node {
  name: "transformer/contract/conv1/InstanceNorm/batchnorm/mul"
  op: "Mul"
  input: "transformer/contract/conv1/InstanceNorm/batchnorm/Rsqrt"
  input: "transformer/contract/conv1/InstanceNorm/ExpandDims_3"
  attr {
    key: "T"
    value {
      type: DT_FLOAT
    }
  }
}
node {
  name: "transformer/contract/conv1/InstanceNorm/batchnorm/mul_1"
  op: "Mul"
  input: "transformer/contract/conv1/convolution"
  input: "transformer/contract/conv1/InstanceNorm/batchnorm/mul"
  attr {
    key: "T"
    value {
      type: DT_FLOAT
    }
  }
}
node {
  name: "transformer/contract/conv1/InstanceNorm/Reshape/shape"
  op: "Const"
  attr {
    key: "dtype"
    value {
      type: DT_INT32
    }
  }
  attr {
    key: "value"
    value {
      tensor {
        dtype: DT_INT32
        tensor_shape {
          dim {
            size: 2
          }
        }
        tensor_content: "\032\000\000\000\001\000\000\000"
      }
    }
  }
}
node {
  name: "transformer/contract/conv1/InstanceNorm/Reshape_eightbit_reshape_dims"
  op: "Const"
  attr {
    key: "dtype"
    value {
      type: DT_INT32
    }
  }
  attr {
    key: "value"
    value {
      tensor {
        dtype: DT_INT32
        tensor_shape {
          dim {
            size: 1
          }
        }
        int_val: -1
      }
    }
  }
}
node {
  name: "transformer/contract/conv1/InstanceNorm/Reshape_eightbit_reduction_dims"
  op: "Const"
  attr {
    key: "dtype"
    value {
      type: DT_INT32
    }
  }
  attr {
    key: "value"
    value {
      tensor {
        dtype: DT_INT32
        tensor_shape {
          dim {
            size: 1
          }
        }
        int_val: 0
      }
    }
  }
}
node {
  name: "transformer/contract/conv1/InstanceNorm/Reshape_eightbit_reshape_style_num"
  op: "Reshape"
  input: "style_num"
  input: "transformer/contract/conv1/InstanceNorm/Reshape_eightbit_reshape_dims"
  attr {
    key: "T"
    value {
      type: DT_FLOAT
    }
  }
}
node {
  name: "transformer/contract/conv1/InstanceNorm/Reshape_eightbit_min_style_num"
  op: "Min"
  input: "transformer/contract/conv1/InstanceNorm/Reshape_eightbit_reshape_style_num"
  input: "transformer/contract/conv1/InstanceNorm/Reshape_eightbit_reduction_dims"
  attr {
    key: "T"
    value {
      type: DT_FLOAT
    }
  }
  attr {
    key: "keep_dims"
    value {
      b: false
    }
  }
}
node {
  name: "transformer/contract/conv1/InstanceNorm/Reshape_eightbit_max_style_num"
  op: "Max"
  input: "transformer/contract/conv1/InstanceNorm/Reshape_eightbit_reshape_style_num"
  input: "transformer/contract/conv1/InstanceNorm/Reshape_eightbit_reduction_dims"
  attr {
    key: "T"
    value {
      type: DT_FLOAT
    }
  }
  attr {
    key: "keep_dims"
    value {
      b: false
    }
  }
}
node {
  name: "transformer/contract/conv1/InstanceNorm/Reshape_eightbit_quantize_style_num"
  op: "QuantizeV2"
  input: "style_num"
  input: "transformer/contract/conv1/InstanceNorm/Reshape_eightbit_min_style_num"
  input: "transformer/contract/conv1/InstanceNorm/Reshape_eightbit_max_style_num"
  attr {
    key: "T"
    value {
      type: DT_QUINT8
    }
  }
  attr {
    key: "mode"
    value {
      s: "MIN_FIRST"
    }
  }
}
node {
  name: "transformer/contract/conv1/InstanceNorm/Reshape_eightbit_quantized_reshape"
  op: "QuantizedReshape"
  input: "transformer/contract/conv1/InstanceNorm/Reshape_eightbit_quantize_style_num"
  input: "transformer/contract/conv1/InstanceNorm/Reshape/shape"
  input: "transformer/contract/conv1/InstanceNorm/Reshape_eightbit_quantize_style_num:1"
  input: "transformer/contract/conv1/InstanceNorm/Reshape_eightbit_quantize_style_num:2"
  attr {
    key: "T"
    value {
      type: DT_QUINT8
    }
  }
}
node {
  name: "transformer/contract/conv1/InstanceNorm/Reshape"
  op: "Dequantize"
  input: "transformer/contract/conv1/InstanceNorm/Reshape_eightbit_quantized_reshape"
  input: "transformer/contract/conv1/InstanceNorm/Reshape_eightbit_quantized_reshape:1"
  input: "transformer/contract/conv1/InstanceNorm/Reshape_eightbit_quantized_reshape:2"
  attr {
    key: "T"
    value {
      type: DT_QUINT8
    }
  }
  attr {
    key: "mode"
    value {
      s: "MIN_FIRST"
    }
  }
}
node {
  name: "transformer/contract/conv1/InstanceNorm/beta"
  op: "Const"
  attr {
    key: "dtype"
    value {
      type: DT_FLOAT
    }
  }
  attr {
    key: "value"
    value {
      tensor {
        dtype: DT_FLOAT
        tensor_shape {
          dim {
            size: 26
          }
          dim {
            size: 32
          }
        }
        tensor_content: "*8\224\276\346\264\013\276\340\274/\276\360\023\026\276c\'\333>\356\277\006\2759\306e?u*\335>Km\327\275R\302m>\003Z\270\276X\020\246\274\243\273%?\264\325B>\261\021\261>#\271\315\275CO\225\276\270\354Z>t{\353\274\360\027\277>\010\331\273>m\272\330\276\223\234\254>\3209\247=%U\316\275\003c.\276\357D\250\276J\251n=\234\014\351\276\2640\203\276\346\343,\275\365\255\317\276\231P\265\276\010\373\211\276\270De\274\345\331\022\276#k[=Y\235\005<\254G\224>\022\247G=\036K\017\276\373 \373\276B\360o\276*\307\306\276\261\332d>x\007,\276\341\344\035>\\\020\007>\023jr\276\013\220\021\276\0228%=\254\354->\027\370\"\276\025)\330\275\003\300\003>\032\305\033>gu\330\275\224\321}\276L\236\230\275\"\353k=\310|\010\276\250s\360<\245\210\235\276\223\360\237\275\213\347\256\276\000\320\262\276\344\216\001\276\271<(\276\203\031\254=\205K\004\276gO;?\010AL\275%Y_=z\362\r=qw\224\276\360\264\223\276\376Y\'?[\264v\275\026\277\217\275\327\010\230=\3140\220\276\213M\242<\004\253B\276\347;\000>\003\t\225=\222S\020\277\317y\305<\360\245_\275\211~\345\2757\304\214\276\334\350\373\276\260\312\342\275\226\356?\276C\003!=N\264\310:\006}\200\276OaU>z\273\240>\347u:\276w+\303\276\331\371\357\276P\257`\276\243k\216>x\256\005\277\301\356\314\276R3\357\2756\0232\2769x\232>\274\246\272>\036H\004\277\322\317\246\276\273gW\276\246vr=\212V\261\276\033W\305\276\370\256=\276\307\240\002\277\027\344q\275<\331\021\277\252\364\202>\272q\216\276~8\232\276\374\254\331>\210\325\245\276\357k\230\276\250\217b\276\244a\003\277]\032\316=\356\330\225\276\354\323+\277]\017\351=\264\006\234\276\016zs=\200\304\201=5\026\357>\225I\345<}^.=}\257e\271\200\231\377\276\340x\266\276K/\226>\210\375\000\276\302\265\336\275U\226\245>c\030\360\276\311\005\346\275jO\t\276rO\030>\346\000y=\236D\344\276\271fH=<\201\331=\325\366\260\276\304\300\207\276\266N\316\276\257|\325\275\201\326\271\276\033\247\202>\341\277Q\276DRU\275\361\250\t\277E\0014\276q%\217>\362n\307\275\317\253\223\276X\217I>fEF?M\356H\276\003\265\240\275o\032\034=y\224\372\276\256\357\311\275\246\351\022?t\023l\275\001\216~\276\254\362\222>=:W\276\3310\005\276i9W\276\245q\234>\002\351\016\276\262\367\311\276\355\327K\276\013\362\245>\272#\256\276\272\225\273\274\327\3247\277\177\272{\276\216\021\205\276\251\177\221>*`\235>]\035\270=$\323\230\276\371\030\032\277fl\334\276\2109\376\276\333\230\227>\235\331\337\276*\'\225?\213}\251\275 \'\335=Y`\022\276\337T\236\276\243;\354<\244\347#?A\370\301\276\231\325.\276C|=\2763\2413\276L\353\212>\226\035\316<\031\\)?$X\271\276\304\316\324\276O\023f\276\261\366\314>p\236\240\276#@\335=\340\255,\277?\273\210\2762a\377\274b\247\013?7\315s>M\202\374\276\000\237\200\276\244\2342\277k2\224>\2033\272\27642\263\275I\345U\274\354!\034?m\023\203=\344\007\006\276Fm\327\276Tq\244\276\341\363\215\276@\321\311>@\001\275\275i\'\304\273\243l\234>-\247\361\274/\021\375\275?}\264=\362uH>\2107\371<F\257\235\276\302\177\366=\227\303\026>\215\307\274\274M<\016>?\3377\276\0228}\276\377gO\276\310*\343=\000+\233\275#\200C>Qc\311\276q\025\324\276a\301(=TrA\276\001\035\307\2750\003\250\275\006\357\275>\214\375)\276g\365\260\275\204\315\360\275\311\370\226\276\367\0133\277a?\360>\335\256R\276\363\377\317\275\315\013\024>\330\032\004\277\233\367@\274\036\363\001\275\242 \266=\212%`\276\207\226\330\276trd\276\271\223\236>\202\346\252\276\353\227\260\276\267$\306\276K\343\316\275\263\335\264\276\302`M\274\365\375\247\276s\356y\276\324\340\265\275\234/\366\276\231-\236>W\333\346=O\230N\276d6H>f!:?\014\325/>\232\004\264\276\361/]\276\266&\315\276H]\000>0`\"?\234\024\036\275\376\240\202\276Ne\033\276\027=P\276\017\231\003\277\211\313?\276\217+\315>\206&\020>@\306\321\276\230\251\213>\207vz\273\206\030\236\276\017\246\342\276vp\253\276\025\334\265\276\007q\307\276\264\360\275=\220s1>j\321Z\2768\343^\276q\177\010\2778P\234<T#|\275\227n\026?\365\014\267;~\224W?\222\330P\274\010W|\276\033$\200\274W\211\243\276\377p}\275\010\336v?\342\004?\276\350h8\274]l\307=\241\317s\276!\035\362=\205><\276\230\247\312>\264\311\212:2\203\004\277\375\332d>\247\230V>\323\363X\275\216n6\276=\355)\277t\026^\276\322\271\324\276\322\365r==\322!>\352Bv\276*\256\264\276A\262\353\276\276?\201=L\320\303>n\010\020=f;\312\275\222\202.?\017\361\256=gb\204\276\213\326L\275\205#\242\275TbZ\276\326\372\213>\023\302\000\276m\301\'\275V*l>T\353\315=\204\221\202\276\230\272U=\202\327\311>=)\221>!\332\256\276\330%+\276:% ?V\034\332\2766\215i\276\036s\n\277\322\342\372\275\327\364q\276\262\220\221=\007eY>9\260\342\275\032;\007\277D.r=<K\017\275\316\210\223\276\224\032>?\324VI>\261\237b?\021\335\326>\360>\254\275\007\326\363>p\005\206\276\223\177\270>\350\364F?\233\0330:\346\236\204\276v[\177\274\340\226N\275\311.X>\352gZ\276\0024\204>\342\025I>\177\313+\276=\214\013?%\222\326=\r\3730>\017\020\004\277w\245\005\277\244\356\345\2760\213\366\276\220\262\231\275\000\006/\275\362\233\244\276r\037M\276|m,\275\357;d\275\241\364f\276\375\213#> ]\275\267\303!!?\002\211\212>\230\242p\276O\352/\276=rb\276\343\316\313=JM\335>\017\220\355\275\256\"\035>\262w\204=\203\315K\276\267h*=.\004g>x\322S>\254\262\377<\027\177\341\276\236k~>\023\255\326>\325\007\036\276\210Nk\276X\242\214\276H\263\201<\'\335\227\276\324\244\002=\264\021p=,\277\037\276gA\332\276\256Z\005\277y\221n\275N\222\301\276\037\242d?\377\376\207\275K\250d?(\234\022?a\227\213=.\255\252>,M\264\276K\264\274\276\212T\177?@Bt\276\217\357\016\277]Q\324\276\263\366\243\275\271+\256=\341gM\275Q|\022?\311#\237=y\351\006\277$S\306>1\247j?\001!I<ZV\240=\213\027)\277\225\335B\276\310^\362\276sz\027>\326\204M>GaW\276\010\337\313\276R\303\330\276\221t\241\276oL\267\276\313\022\303\276\nkD\276\032\377\313>[]:\276\3003`\275\214\267\226\276F\2450\276y\236\316\276\366\323\374>nY\010\276\230\317\213=\033\302W\276GRs\276\315\032\000\275\377<\022\276\000\260\330=C\035\"\276>2\017\277\255\035\200\276)\336Q\276jl|\276\257\242c=\020d\001\275\216\200d=*\315\213\276=,\235\276\233\341c\276\027\"\222\276h\256\231\276\220\002\246\276\315\031\257\275\017\315\307\275\030\260\363<g\366v\275\026\365\"?\360}\007\276\247\243\361\275\254\020\027=\206\316\371\275\330\227e\276;\374(?\224\304\000\276(%\250\276\000\315\330\274F\023\203\276\325\017\245=O\"\177\276\t\033n=\323\275\320\275\211\304\004\277A\251\200\276@6\026>\t\032\205\276]\337{\275\224\335\201\276\361K\305\276\025\253\351\276\346Fp\275\350Q\231\276-~q\2751\2722\276`\345\305<\263\357\223\276I0\276=\225`~\276\030Q*\276>\037\220\275\217o\264\276)]\000>\013\016\'\276\214\2433\276\373\276\006\277(\t\212>M\371\362\275p\220\227\276@L\225\276\204\235\326\276\260e\243\276\204\r\204=\234|\017>\205\306\273\276=\003\247\274\266\306L\276\365\021\334>p;\206\275&2\340<;\357Y=D\356\362\275\347-}\276\0261P\276\026\271\240<^Nf\276q\223\345\276Tm\275\276\242\207\340=:\245\276\276\"$V>\206^#=\327nO?\354\377\236\275\377\264\220>Kw\376\276\337\3672\276\225R]\276\243\205\004?v\317L\276\n\010\363\275f^\322>\254P\036\276\344\024G\276\354\2441\276V\274\336>+\224\t\277\363\360v\276\224c\341\273\032\366\300>\305y\254\275\036\303D\276\342E\000\277\'q\204\276\324\310\222\275\363\255\344>\363\230\320=D\256\252\276\302<\271\275\266\021\035\277\271N\370>v\303\237\276\277\273\316\275\243\234\312>\251c*?\345\265\352\275K}w\276\323\336d>\301\325l\275\355\376\234=\025\322\241>\031 \235\276\n\2171\276\244e\276>O*]>2\301\365\274\306\237\373<\257\320\225>\337\377\204\276\312\200\324\276U&\212\276\342\326)\275\230\374\326\276\317iK\276\301\304\207\276\267u\030\276\362\271\200\273\216/t>M\320\267>\030*\200\276<\006\023\276f\276\234\276C!\002>#\353\227\275RD\027\276z\240^\2756\226Y?R\303B\275\355\311\263\276\227:\240\276\313\252\202\275L\226\317\274V\017D?\216\023\030\276d\223\200=4)\210\275\024\025\252\276[\013\034\276\034\021\374\275x\217f>\302d\207\275m\347\254\276wU\356\275?W{>S\213\033\276\221:\271\276\'\276\230\276C)v\275\325\\\246\276\316^(=\340g\235\276\312\352\213\276eN\210\276,\320>\276\256\242z\274\365k\t\277\330\325\267=X\264\n\276\221d\262>\200>\257=\242\241]\274UM\307\275}\246d\276R\331\010\277YK\277>\301\317C\276 G\270\274>\210 \275\026\333\234\276k\342\'>\245\n6<\221\242\347<#\225\246;9`\031\277\274\256\'=\314:\264=\006h\245\274lw\366\276D\2579\276=\250\277\274rK*\276!\217\322\274\334m\241\275r\215\212\276{\201\033\277u\006\357\276\273\202\017=\307(\235\276\365+R</\006\337\276\201\335??_H+\275\004\277\204>j\332\255\273\266\223\373\275_\264\224\276M\316*?o\002\030\276\023\"\223\275\331y\244\272\367B\270\276<\021\277<\324&B\274\21158>\220#\253\276m\2450\277\355\273\233\275\202!\300>\274\341G\274\021H\314\275\177Y\367\2760\032\351\275\327p\365\276\31773>\251\231\230\276\226\305y\276q:\304\276.\214\024\277_\356L?3\027\326\276\241\316,\275)\253\341>\264\315(?\033\214\200\276^\346\261>\263_\212\276S\213\025\276+\211\305\275\332$&?v\251\013\277$\327[\2779\246\214?\355\007j<\260z\352=\330J\251\276\266\251\334>\310\321\336\276\247\227\005\276\326x\\\276\357|\213=\020\212\360\276\221\251l=A\367\201\277Sz\036\277A\274\232=\236\201a?\010\272??\034N\224>\006\231\213\276\210U\"\277?\357\232\276i\206\320\276\356L\241\274Q\021:\276\200\315Z?\277\322\304=\326\215\205\276\342\250\010\277\210R\313\276\304\272\330\276\205iO?%\351#\275\214r\356>\007\030\336\275\340\367\215\2762?\030=G\024D\276\005]\207>\020T\312>6&\354\276\371\023\262;L1\324\274\223j/\276\317\031\026\276\231\235@\277\210\367[>\0274\026\274Y\335\316\275]\002\362>\252=\252\2767\r\227\276\243\274\031\277\352\344\033>h\030\326\275\253E\254\275\034\261+\274\340\007\221?\301\262\222\274\205\3215\276.\327\215=f\323z\276\330\375G\274Ye9?\214 \315\275k\307\032\275\026\202o>\277\211{\276\326\243!\276H\275\260>p\324\303>\202\250\037\274\017\211\213\276\377\324[\274\260\3172>S\346\000\276.D\223\275\204j7\277\257`\314\2765\366\331\276\340\267B>E|\350=w5\274\275"
      }
    }
  }
}
node {
  name: "transformer/contract/conv1/InstanceNorm/mul"
  op: "Mul"
  input: "transformer/contract/conv1/InstanceNorm/Reshape"
  input: "transformer/contract/conv1/InstanceNorm/beta"
  attr {
    key: "T"
    value {
      type: DT_FLOAT
    }
  }
}
node {
  name: "transformer/contract/conv1/InstanceNorm/Sum/reduction_indices"
  op: "Const"
  attr {
    key: "dtype"
    value {
      type: DT_INT32
    }
  }
  attr {
    key: "value"
    value {
      tensor {
        dtype: DT_INT32
        tensor_shape {
        }
        int_val: 0
      }
    }
  }
}
node {
  name: "transformer/contract/conv1/InstanceNorm/Sum"
  op: "Sum"
  input: "transformer/contract/conv1/InstanceNorm/mul"
  input: "transformer/contract/conv1/InstanceNorm/Sum/reduction_indices"
  attr {
    key: "T"
    value {
      type: DT_FLOAT
    }
  }
  attr {
    key: "Tidx"
    value {
      type: DT_INT32
    }
  }
  attr {
    key: "keep_dims"
    value {
      b: true
    }
  }
}
node {
  name: "transformer/contract/conv1/InstanceNorm/ExpandDims/dim"
  op: "Const"
  attr {
    key: "dtype"
    value {
      type: DT_INT32
    }
  }
  attr {
    key: "value"
    value {
      tensor {
        dtype: DT_INT32
        tensor_shape {
        }
        int_val: 1
      }
    }
  }
}
node {
  name: "transformer/contract/conv1/InstanceNorm/ExpandDims"
  op: "ExpandDims"
  input: "transformer/contract/conv1/InstanceNorm/Sum"
  input: "transformer/contract/conv1/InstanceNorm/ExpandDims/dim"
  attr {
    key: "T"
    value {
      type: DT_FLOAT
    }
  }
  attr {
    key: "Tdim"
    value {
      type: DT_INT32
    }
  }
}
node {
  name: "transformer/contract/conv1/InstanceNorm/ExpandDims_1/dim"
  op: "Const"
  attr {
    key: "dtype"
    value {
      type: DT_INT32
    }
  }
  attr {
    key: "value"
    value {
      tensor {
        dtype: DT_INT32
        tensor_shape {
        }
        int_val: 1
      }
    }
  }
}
node {
  name: "transformer/contract/conv1/InstanceNorm/ExpandDims_1"
  op: "ExpandDims"
  input: "transformer/contract/conv1/InstanceNorm/ExpandDims"
  input: "transformer/contract/conv1/InstanceNorm/ExpandDims_1/dim"
  attr {
    key: "T"
    value {
      type: DT_FLOAT
    }
  }
  attr {
    key: "Tdim"
    value {
      type: DT_INT32
    }
  }
}
node {
  name: "transformer/contract/conv1/InstanceNorm/batchnorm/mul_2"
  op: "Mul"
  input: "transformer/contract/conv1/InstanceNorm/moments/normalize/mean"
  input: "transformer/contract/conv1/InstanceNorm/batchnorm/mul"
  attr {
    key: "T"
    value {
      type: DT_FLOAT
    }
  }
}
node {
  name: "transformer/contract/conv1/InstanceNorm/batchnorm/sub"
  op: "Sub"
  input: "transformer/contract/conv1/InstanceNorm/ExpandDims_1"
  input: "transformer/contract/conv1/InstanceNorm/batchnorm/mul_2"
  attr {
    key: "T"
    value {
      type: DT_FLOAT
    }
  }
}
node {
  name: "transformer/contract/conv1/InstanceNorm/batchnorm/add_1"
  op: "Add"
  input: "transformer/contract/conv1/InstanceNorm/batchnorm/mul_1"
  input: "transformer/contract/conv1/InstanceNorm/batchnorm/sub"
  attr {
    key: "T"
    value {
      type: DT_FLOAT
    }
  }
}
node {
  name: "transformer/contract/conv1/Relu_eightbit_reshape_dims"
  op: "Const"
  attr {
    key: "dtype"
    value {
      type: DT_INT32
    }
  }
  attr {
    key: "value"
    value {
      tensor {
        dtype: DT_INT32
        tensor_shape {
          dim {
            size: 1
          }
        }
        int_val: -1
      }
    }
  }
}
node {
  name: "transformer/contract/conv1/Relu_eightbit_reduction_dims"
  op: "Const"
  attr {
    key: "dtype"
    value {
      type: DT_INT32
    }
  }
  attr {
    key: "value"
    value {
      tensor {
        dtype: DT_INT32
        tensor_shape {
          dim {
            size: 1
          }
        }
        int_val: 0
      }
    }
  }
}
node {
  name: "transformer/contract/conv1/Relu_eightbit_reshape_transformer/contract/conv1/InstanceNorm/batchnorm/add_1"
  op: "Reshape"
  input: "transformer/contract/conv1/InstanceNorm/batchnorm/add_1"
  input: "transformer/contract/conv1/Relu_eightbit_reshape_dims"
  attr {
    key: "T"
    value {
      type: DT_FLOAT
    }
  }
}
node {
  name: "transformer/contract/conv1/Relu_eightbit_min_transformer/contract/conv1/InstanceNorm/batchnorm/add_1"
  op: "Min"
  input: "transformer/contract/conv1/Relu_eightbit_reshape_transformer/contract/conv1/InstanceNorm/batchnorm/add_1"
  input: "transformer/contract/conv1/Relu_eightbit_reduction_dims"
  attr {
    key: "T"
    value {
      type: DT_FLOAT
    }
  }
  attr {
    key: "keep_dims"
    value {
      b: false
    }
  }
}
node {
  name: "transformer/contract/conv1/Relu_eightbit_max_transformer/contract/conv1/InstanceNorm/batchnorm/add_1"
  op: "Max"
  input: "transformer/contract/conv1/Relu_eightbit_reshape_transformer/contract/conv1/InstanceNorm/batchnorm/add_1"
  input: "transformer/contract/conv1/Relu_eightbit_reduction_dims"
  attr {
    key: "T"
    value {
      type: DT_FLOAT
    }
  }
  attr {
    key: "keep_dims"
    value {
      b: false
    }
  }
}
node {
  name: "transformer/contract/conv1/Relu_eightbit_quantize_transformer/contract/conv1/InstanceNorm/batchnorm/add_1"
  op: "QuantizeV2"
  input: "transformer/contract/conv1/InstanceNorm/batchnorm/add_1"
  input: "transformer/contract/conv1/Relu_eightbit_min_transformer/contract/conv1/InstanceNorm/batchnorm/add_1"
  input: "transformer/contract/conv1/Relu_eightbit_max_transformer/contract/conv1/InstanceNorm/batchnorm/add_1"
  attr {
    key: "T"
    value {
      type: DT_QUINT8
    }
  }
  attr {
    key: "mode"
    value {
      s: "MIN_FIRST"
    }
  }
}
node {
  name: "transformer/contract/conv1/Relu_eightbit_quantized"
  op: "QuantizedRelu"
  input: "transformer/contract/conv1/Relu_eightbit_quantize_transformer/contract/conv1/InstanceNorm/batchnorm/add_1"
  input: "transformer/contract/conv1/Relu_eightbit_quantize_transformer/contract/conv1/InstanceNorm/batchnorm/add_1:1"
  input: "transformer/contract/conv1/Relu_eightbit_quantize_transformer/contract/conv1/InstanceNorm/batchnorm/add_1:2"
  attr {
    key: "Tinput"
    value {
      type: DT_QUINT8
    }
  }
}
node {
  name: "transformer/contract/conv1/Relu"
  op: "Dequantize"
  input: "transformer/contract/conv1/Relu_eightbit_quantized"
  input: "transformer/contract/conv1/Relu_eightbit_quantized:1"
  input: "transformer/contract/conv1/Relu_eightbit_quantized:2"
  attr {
    key: "T"
    value {
      type: DT_QUINT8
    }
  }
  attr {
    key: "mode"
    value {
      s: "MIN_FIRST"
    }
  }
}
node {
  name: "transformer/contract/MirrorPad_1/paddings"
  op: "Const"
  attr {
    key: "dtype"
    value {
      type: DT_INT32
    }
  }
  attr {
    key: "value"
    value {
      tensor {
        dtype: DT_INT32
        tensor_shape {
          dim {
            size: 4
          }
          dim {
            size: 2
          }
        }
        tensor_content: "\000\000\000\000\000\000\000\000\001\000\000\000\001\000\000\000\001\000\000\000\001\000\000\000\000\000\000\000\000\000\000\000"
      }
    }
  }
}
node {
  name: "transformer/contract/MirrorPad_1"
  op: "MirrorPad"
  input: "transformer/contract/conv1/Relu"
  input: "transformer/contract/MirrorPad_1/paddings"
  attr {
    key: "T"
    value {
      type: DT_FLOAT
    }
  }
  attr {
    key: "Tpaddings"
    value {
      type: DT_INT32
    }
  }
  attr {
    key: "mode"
    value {
      s: "REFLECT"
    }
  }
}
node {
  name: "transformer/contract/conv2/weights_quint8_const"
  op: "Const"
  attr {
    key: "dtype"
    value {
      type: DT_QUINT8
    }
  }
  attr {
    key: "value"
    value {
      tensor {
        dtype: DT_QUINT8
        tensor_shape {
          dim {
            size: 3
          }
          dim {
            size: 3
          }
          dim {
            size: 32
          }
          dim {
            size: 32
          }
        }
        tensor_content: "\246\260\245\247\250\240\240\253\244\244\246\234\233\236\245\252\235\306\237\243\231\244\250\254\247\243\255\251\242\303\233\261\240\306\236\237\273\245\243\244\244\256\243\240\221\223\261\236\216\303\213\256\243\241\241\251\300\257\225\250\227\277\240\237\227\315\233\242\313\264\231\235\250\244\244\242\234\241\240\237\245\311\231\257\260\243\243\304\206\247\236\224\254\306\255\226\240\262\242\247\267\252\247\241\204\236\247\256\244\237\232\244\264\277\221\232\250\235\252\265\272\260\244\245\240\303\261\214\262\244\273\242\244\225\235\301\223\241\244\252\235\225\225\301\223\242\241\235\340r\265\242\233\274\265\234\226\232\306\234\235\310\236\266\334\301\201\235\242\250\262\224\252\240\223\234\233\270\217\241\261\244\252\301\221\245\237\260\240\273\260\243\177\263\231\307\267\312\302\206\202\334\272\273\276\241\240\211\270\265\210\332\216\317g\264\227\231\236\262\226\276\233\201\252\247\300\243\242\221\222\322\217\240\234\266\236\227\230\331\240\246\245\233\341\202\254\245\240\320\313\230\221\235\330\236\271\242\257\261\244\253\220\240\234\246\245\227\212\205\242\262\220\251\244\245\265\220\257\226\251\262\232\206\214\235\262\232\276\253\245\245\253\251\257\227\236\263\241\231\236\231\256\254\231\246\273\240\240\211\267\236\205\246\205\223\237\240\255\236\246\216\244\246\227\250\232\245\205\231\235\236\254\242\220\256\213\246\243\230\242\231\240\235\225\256\261\263\230\250\264\266\234\252\244\247\273\252\231\237\252\255\247\231\205\212\234\233\216\305\221\261\252\230\235\264\274\257\232\224\243\275\233\237\216\235\305\253\241\231\313\305\236\274\315\310\253\277\310\272\255\215\274\236\231\245\254\207\242\275\211|\305\222\217\244\263\241\250\234\241\227\230\257\241\242\235\254\235\226\222\264\227\242\235\230\324\217\251\236\235\252\276\226\232\231\300\233\247\245\301\246\245\217\232\276\245\242\244\320\232\232\226\273\243\253\237\234\302\221\255\257\234\304\305\256\231\244\273\242\221\311\231\251\314\266\225\232\236\254\250\225\243\242\223\232\227\313\223\251\251\240\241\307\216\242\232\253\252\316\257\230\236\255\246\247\254\253\241\244\237\241\241\237\233\233\233\244\236\321\230\252\242\237\240\265\261\255\246\265\242\324\246\246\264\247\277\254\251\241\254\264\234\247\246\246\235\234\244\312\224\247\262\237\271\177\270\245\235\272\230\261\231\243\277\226\234\225\241\243\245\263\255\244\231\262\227\245\255\260\237\240\276\257\255\311\235\243\242\256\250\263\231\222\264\254\230\222\214\261\236\263\255\260\207\242\206\265\247\260\252\205\237\232\206\244\221\212\237\260}\241\214\243\256\324\200\257\271\263\240\233\262\252\234\216\230\270\222\245\247\315\245\224\235\271\232\246\230\235\276\230\237\242\265\307\321\231\225\244\277\252\241\257\254\251\253\237\260\245\251\234\241\225\234\227\245\255\233\267\244\233\245\236\241\252\252\237\247\246\243\263\245\243\247\242\301\233\237\213\212\312\221\241\236\270\234\222\213\302\223\241\226\243\346\206\246\240\246\276\320\216\232\230\305\231\242\250\252\234\255\261\216\241\207\246\206\257\236\216\236\242\204\243\242\231\254\251\204\235\240\267\270\300\200\242\261\267\257\260\234\242\253\272\224\242\242\255\220\233\212\235\221\232\253\245\252\253\256\232\241\255\227\223\271\243\204\244\301\217\247\302\246\235\275\250\246\250\250\254\241\257\237\241\235\253\246\264\230\216\262\235\260\260\230\250\261\250\232\264\255\226\236\257\260\245\301\246\241\252\241\236\242\232\216\246\246\250\233\235\233\227\242\226\245\245\240\254\261\250\241\224\253\244\250\245\271\240\255\236\247\271\250\247\231\261\231\223\227\311\220\254\246\236\267z\261\260\224\265\247\257\231\244\257\230\245\244\244\237\235\242\250\246\252\242\240\232\234\241\230\260\220\267\234\244\257\217\240\240\245\236\247\241\244\275\252\252\223\307\224\267\315\254\224\234\255\257\271\242\242\251\232\225\236\301\223\230\250\247\247\263\206\243\244\233\253\300\253\235\217\266\226\225\307\312\260\235\236\231\230\257\262\255\234\231\260\274\256\273\246\235\240\321\222\227\246\243\261\305\247\221\240\315\240\237\320\271\244\247\253\241\256\235\236\235\252\234\237\307\224\261\260\245\245\306\234\252\241\224\253\303\255\230\247\255\245\241\250\237\237\250\241\243\246\232\234\240\245\252\235\305\240\243\232\244\246\247\246\244\254\253\246\305\234\261\242\304\231\233\270\244\240\240\247\260\245\235\213\221\260\233\216\301\213\251\245\242\240\252\273\255\227\256\226\273\244\235\234\310\234\243\313\262\225\234\254\246\237\241\232\240\232\236\244\300\231\256\256\245\245\300\200\246\237\225\247\273\260\217\241\260\237\254\264\250\250\242\202\243\254\256\241\244\232\245\264\272\224\233\247\235\244\260\275\257\244\254\242\302\261\220\255\243\276\246\246\226\241\304\227\245\246\260\234\230\235\306\224\246\244\234\346p\261\254\237\277\263\237\233\235\302\243\231\313\241\257\337\303\177\235\242\246\250\225\250\237\213\236\237\266\220\244\256\245\254\303\220\246\236\300\232\271\257\240\212\263\226\230\262\277\275\206\206\332\232\270\276\234\225\210\270\261\204\321\207\305z\261\221\223\234\274\224\275\222\204\250\247\302\243\250\220\230\327\217\237\241\266\236\233\234\334\242\251\253\235\344\204\246\252\237\325\312\231\232\237\322\243\271\245\260\260\247\255\227\237\242\251\252\231\214\206\242\264\224\254\253\246\263\216\254\234\246\263\224\211\220\241\254\236\272\252\253\244\256\253\264\231\242\265\241\236\235\233\256\257\231\250\277\241\236\215\263\243\204\251\207\241\237\237\253\236\250\214\242\255\227\251\232\245\213\230\236\235\255\240\225\255\213\243\245\243\243\232\251\241\232\257\260\242\233\245\256\262\232\250\246\252\271\247\227\234\253\257\253\227\204\212\231\231\215\301\224\261\247\226\237\262\270\254\232\230\244\270\233\232y\243\303\253\254\232\315\302\214\337\342\306\262\307\310\267\247\224\303\230\226\252\207\210\236\275\212\217\311\232\214\264\263\241\252\240\246\231\237\256\240\244\240\247\236\231\221\261\231\246\240\233\323\207\246\242\235\247\263\231\235\233\272\240\234\237\303\253\241\214\237\300\236\242\260\322\235\244\232\273\246\252\243\232\311\217\236\257\237\307\307\247\243\245\272\260\226\307\235\247\315\271\217\232\242\253\241\227\240\242\215\233\231\306\231\257\250\241\247\310\207\244\233\257\250\307\260\224\237\251\244\246\254\252\235\242\240\240\236\240\233\231\233\245\235\312\234\254\244\237\236\260\262\254\244\270\236\313\244\243\260\244\312\261\253\242\255\272\234\253\255\253\233\236\252\322\225\247\264\234\276\211\260\250\240\301\233\260\240\242\276\235\231\226\244\250\245\261\255\250\227\265\234\247\261\265\237\241\300\261\261\304\236\237\240\255\244\272\233\222\267\255\230\224\225\254\234\224\253\256\205\244\203\250\210\252\251\206\230\234\214\244\225\227\230\251\212\247\214\247\260\322}\254\261\272\235\234\264\253\235\221\240\273\223\243\255\314\247\231\237\273\237\251\232\241\275\221\233\245\266\305\314\226\234\250\271\255\237\254\253\250\253\237\257\243\247\242\243\225\234\235\244\255\234\262\244\231\246\237\237\244\252\240\247\253\246\256\252\245\246\242\300\234\243\215\221\307\223\242\242\266\235\227\222\276\230\244\240\244\343\201\250\246\244\273\305\217\237\234\276\233\253\246\245\216\253\264\213\234\217\224{\252\236\210\233\241\210\245\245\243\253\250\223\243\233\265\267\267~\237\254\266\261\254\237\243\252\271\227\243\250\253\216\233\215\234\214\243\257\251\264\265\255\231\240\262\223\226\272\236\203\245\271\226\247\277\251\237\274\251\246\247\251\253\230\262\240\241\231\256\251\263\241\225\256\240\256\265\232\251\260\255\230\260\255\225\240\256\257\240\300\245\236\251\244\233\236\226\217\247\241\252\234\233\231\232\243\225\252\245\235\255\262\252\236\220\255\243\242\241\304\243\255\237\250\301\244\253\240\267\233\232\231\316\221\254\251\233\277\177\251\261\230\274\253\253\236\245\260\237\246\243\245\234\240\241\245\250\252\237\240\231\230\240\227\257\221\261\233\243\257\217\243\236\242\240\245\245\242\274\254\250\225\311\226\257\321\256\222\233\256\260\263\243\241\252\224\226\237\275\222\233\247\251\254\262\210\245\243\255\247\275\252\234\225\257\227\234\277\303\257\241\242\231\231\262\262\256\233\232\262\262\257\273\251\240\251\312\222\235\251\232\255\274\247\213\242\310\240\236\315\265\241\243\252\242\255\233\233\236\247\233\234\275\225\256\262\245\246\301\235\253\242\231\250\270\257\223\245\254\245\237\250\237\237\247\243\247\244\230\234\245\241\247\233\277\236\240\235\243\244\247\244\240\253\253\250\301\240\261\246\302\231\232\265\245\241\235\250\262\242\233\213\222\255\235\224\276\216\247\245\242\240\251\270\256\231\261\224\271\250\237\237\310\233\237\317\262\225\232\253\250\230\237\230\240\225\236\245\271\226\252\254\245\251\272z\247\240\232\242\265\261\210\235\253\235\254\262\244\251\241~\245\254\261\241\247\230\245\267\272\226\232\244\235\242\254\271\257\247\261\247\274\261\221\246\245\304\247\247\230\246\315\226\245\254\266\237\234\236\312\226\245\247\234\355u\255\256\235\303\265\243\240\236\300\251\233\311\242\255\341\305\177\235\246\243\237\225\251\240\206\237\243\270\224\245\256\243\255\314\215\245\236\305\226\271\254\235\240\263\223\211\266\270\267\177\232\315\204\270\276\233\211\210\274\264\211\301\177\270\251\261\214\227\233\267\216\276\212\206\237\250\312\245\252\225\233\333\216\235\247\272\245\242\236\341\246\250\255\234\350\205\240\255\236\332\315\232\241\242\323\250\263\251\261\257\252\256\236\241\241\254\251\240\213\211\247\270\225\255\263\247\270\216\246\241\244\264\223\222\222\241\246\242\265\247\254\236\261\255\266\234\246\263\235\244\236\236\254\262\227\250\302\241\236\222\254\245\201\253\207\250\241\241\257\234\251\210\243\262\232\254\234\244\220\233\241\236\253\240\234\256\213\241\254\253\236\232\251\251\237\262\253\222\231\242\250\257\232\244\244\250\263\251\226\231\252\262\254\230\203\210\227\233\214\273\226\261\244\223\235\261\264\253\225\236\242\266\230\231m\261\273\227\264\240\320\274\177\342\310\302\276\330\276\257\251\234\316\224\221\256j\214\220\273\213\243\322\240\213\272\257\243\253\244\253\234\244\261\240\243\246\253\240\236\224\265\232\250\242\232\323\204\250\252\236\252\257\235\237\235\264\237\224\235\311\255\242\213\236\307\231\241\271\325\245\252\235\302\244\252\247\226\321\217\224\256\241\313\320\236\260\244\271\273\227\304\235\247\316\271\214\232\243\256\232\227\236\237\207\234\232\306\225\260\250\241\247\315\204\243\232\261\241\304\257\217\234\243\244\252\253\252\231\237\241\243\236\241\233\230\231\244\236\303\234\254\240\240\240\257\257\253\241\270\233\306\246\242\250\243\321\262\251\242\256\276\231\253\256\262\236\244\253\323\225\250\263\235\302\216\251\253\237\306\242\256\246\236\301\243\222\231\250\257\246\261\252\250\231\270\242\247\262\267\236\244\303\262\264\300\235\237\233\257\243\275\234\225\272\256\225\225\237\245\226\216\245\262\210\240\212\224s\243\256\203\226\237\221\241\242\247\232\246\241\257\210\251\257\304x\250\243\301\231\240\265\255\240\225\241\275\221\236\261\310\251\231\242\277\234\253\233\245\272\212\231\246\266\307\312\227\244\252\262\261\235\250\252\252\253\236\260\244\244\246\244\232\232\242\243\257\235\253\247\230\250\240\240\243\247\241\253\254\247\253\253\250\243\246\304\236\246\220\233\311\223\237\250\265\240\231\224\301\233\250\243\247\341|\246\252\241\275\274\223\247\240\270\241\264\237\241\231\246\264\216\233\226\215|\246\240\206\243\236\214\246\253\257\250\250\243\251\244\266\263\244\201\242\244\267\260\252\245\252\252\272\233\247\253\250\216\233\223\233\222\246\261\260\276\273\254\232\242\271\232\235\265\233\204\251\266\234\243\273\253\237\275\253\246\247\251\255\223\267\243\242\225\256\252\262\250\235\251\241\253\274\230\254\261\252\230\256\254\231\244\254\260\240\300\250\235\254\247\233\233\225\220\246\237\253\237\233\232\236\243\226\253\251\240\257\262\253\236\221\255\241\233\236\314\251\254\236\250\310\236\251\245\273\240\242\241\322\223\255\251\233\305\205\242\260\234\306\263\241\247\243\263\246\250\241\244\232\242\242\250\244\250\235\237\232\227\243\226\253\222\264\232\242\261\217\245\234\240\242\244\251\237\267\255\247\226\306\230\250\323\260\216\233\254\263\252\240\236\247\216\227\237\272\227\234\251\251\253\265\205\246\242\271\241\271\253\226\232\252\231\251\275\275\253\241\247\232\232\260\254\257\230\232\266\261\254\265\252\237\253\311\215\237\253\217\252\267\251\207\237\306\241\234\317\260\240\241\253\244\251\231\227\240\243\232\237\267\227\254\260\246\241\274\226\252\243\236\246\257\261\213\247\257\245\245\246\233\240\252\245\246\250\233\232\237\252\253\232\306\240\237\227\244\245\251\247\242\252\247\242\302\231\261\241\303\233\240\262\235\245\242\250\261\243\242\214\220\263\237\212\300\215\247\246\244\240\246\304\257\230\244\226\271\243\240\231\317\234\240\307\257\230\236\254\250\242\237\236\242\240\237\242\304\230\251\256\243\245\275\205\250\236\231\246\307\254\230\236\254\242\251\256\246\250\241\205\241\252\255\246\241\234\242\262\274\223\227\242\236\251\257\273\257\243\251\241\276\263\221\257\244\273\237\242\223\235\277\214\242\236\245\232\226\223\273\235\243\241\245\327o\263\246\235\270\255\241\231\235\303\225\225\313\242\254\323\276\177\237\242\251\252\223\255\237\220\234\230\267\221\237\260\245\247\274\220\250\236\301\236\267\255\250l\260\232\201\255\312\271\211\201\331\246\273\313\247\205\213\265\256\215\340\216\3265\256\206\236\233\271\224\272\225\222\252\246\277\243\241\222\221\314\216\240\234\260\231\227\227\322\247\247\244\242\331\202\253\246\241\314\304\232\225\236\327\230\274\244\255\246\246\254\224\236\235\246\241\225\221\211\235\257\232\251\243\255\262\220\255\227\250\261\231\210\222\236\260\222\275\250\247\242\254\254\255\225\236\267\242\225\232\234\261\253\236\247\271\245\240\213\271\236\205\250\200\236\240\240\256\224\247\216\241\247\233\254\234\243\212\235\234\232\253\241\222\252\214\245\250\233\241\231\244\240\231\256\260\264\232\246\266\260\234\254\241\251\266\245\233\236\250\255\250\231\206\214\232\234\212\304\220\256\246\230\240\262\277\257\231\224\243\275\234\242\207\234\304\251\235\230\315\303\205\310\312\307\270\312\301\265\253\217\277\241\230\241\227}\233\272\220}\306\225\216\253\256\237\246\230\237\225\233\255\235\236\233\252\241\233\212\261\237\237\236\237\316\215\241\237\233\254\274\223\235\231\301\227\243\241\277\236\243\222\232\263\240\242\247\306\235\235\221\264\262\251\241\243\264\215\250\257\232\277\276\255\232\247\272\246\216\307\233\253\303\262\226\234\237\257\246\231\244\242\222\232\225\306\226\243\251\237\242\301\207\242\233\261\252\311\256\236\241\252\244\245\254\251\235\242\240\240\237\240\231\233\234\242\233\312\230\247\244\237\241\262\264\253\243\267\237\320\246\244\263\245\303\253\247\240\252\262\227\255\247\240\233\240\242\306\236\246\264\244\261\177\265\246\236\270\222\266\241\244\276\221\231\221\234\230\237\264\251\246\223\254\217\243\257\253\231\236\276\245\245\312\243\246\244\251\247\267\235\214\261\251\244\212\220\253\234\251\240\251\205\241\217\271\260\253\252\207\250\226\202\232\243\202\231\266\177\234\217\247\251\317}\234\260\276\243\233\257\246\236\224\231\266\223\242\246\307\245\221\232\264\240\251\233\243\271\227\236\244\270\307\317\233\223\246\275\247\243\260\254\254\247\234\257\244\254\243\244\224\233\227\247\260\233\264\244\224\244\236\242\244\256\234\245\247\241\257\244\242\246\241\300\226\235\214\211\306\220\241\233\263\231\224\207\275\234\241\231\247\335\205\244\240\250\274\314\214\232\233\300\224\250\240\246\226\241\256\216\236\223\246\214\257\236\212\244\233\204\237\256\230\252\253\207\230\237\271\266\270}\225\260\270\252\261\232\234\256\277\223\241\237\253\214\234\212\236\215\234\256\243\254\254\253\227\236\260\226\221\263\250\206\246\301\217\247\303\247\236\267\244\244\247\251\256\237\257\233\240\235\252\246\264\231\220\255\235\257\257\236\250\255\265\225\262\260\227\237\261\262\240\274\242\235\253\243\241\241\233\216\244\245\251\230\236\234\227\243\230\243\245\242\254\262\256\237\221\254\246\243\242\276\242\250\235\251\273\240\252\235\255\237\230\225\306\231\254\247\243\257t\255\257\226\262\245\255\234\244\262\233\245\245\247\236\237\243\246\247\247\244\240\233\235\240\231\257\222\272\236\240\260\215\241\236\242\236\245\242\244\276\251\252\221\302\230\264\300\247\225\233\254\262\267\245\246\246\231\226\232\276\231\226\250\251\247\253\205\242\244\247\250\277\252\243\217\262\227\231\303\311\260\237\237\231\225\263\262\254\233\227\252\264\254\266\251\240\244\313\225\233\247\246\256\303\257\217\243\315\242\235\312\261\237\245\253\244\254\237\233\233\251\234\231\304\220\253\257\247\250\301\234\254\243\226\246\302\255\230\246\260\244\244\247\236\240\250\243\250\246\232\232\242\251\251\231\305\240\235\233\244\246\250\252\244\250\250\246\304\234\261\244\300\230\236\261\240\244\236\246\264\244\240\211\217\262\236\212\277\211\245\243\244\237\244\276\254\232\252\224\272\247\240\234\313\236\243\312\256\223\236\252\247\237\240\231\241\231\241\237\275\227\250\255\243\245\274\201\251\240\234\243\301\257\221\235\250\241\254\255\242\246\237\201\245\256\255\244\244\233\242\261\271\225\227\243\237\243\253\274\255\245\260\242\274\263\224\252\246\277\243\246\227\242\302\223\244\247\250\235\232\231\300\241\246\245\242\332o\257\251\240\273\254\244\241\237\302\233\227\315\245\247\331\304\177\240\243\244\237\226\253\240\215\235\233\264\223\241\255\250\246\305\222\250\235\322\231\267\254\246z\254\2251\252\305\263\210\202\301n\266\313\235x\215\263\252\207\364\212\314Q\255\207\227\235\304\222\267\215\220\245\247\303\241\247\223\226\323\214\241\243\261\235\234\231\324\252\247\252\242\327\201\246\253\241\321\301\231\235\241\326\235\270\245\254\244\246\255\231\235\242\251\246\226\217\213\240\260\234\254\253\256\260\213\253\232\243\257\221\214\226\237\251\230\273\252\253\247\255\252\264\233\243\271\242\236\232\236\257\256\240\250\276\242\235\215\265\243\207\246\201\254\241\242\252\225\253\214\240\255\232\254\235\243\216\227\234\231\251\237\232\253\215\244\251\244\240\232\255\247\237\262\253\242\234\242\263\252\234\247\243\253\271\246\231\234\251\256\253\231\206\213\232\234\216\302\221\255\246\230\235\262\273\255\230\231\240\274\232\240p\247\301\251\246\231\316\302s\356\324\310\274\317\275\266\245\223\307\231\224\247q~\231\272\220\222\313\235\214\273\256\237\246\233\245\231\243\253\237\235\236\246\243\241\213\261\245\242\242\241\310\207\242\241\233\250\260\227\243\230\271\231\227\235\301\242\241\214\236\271\235\243\257\311\240\245\224\271\261\250\246\241\274\211\231\256\237\302\301\241\244\242\267\264\220\307\234\252\307\270\220\232\241\255\240\227\241\240\213\236\227\303\230\250\250\240\243\303\206\243\231\266\243\303\255\230\235\251\244\250\254\252\233\243\237\242\235\241\232\227\232\243\234\304\232\251\241\240\242\260\264\254\244\271\234\312\246\243\254\244\317\270\250\242\255\272\225\261\260\246\233\241\247\316\235\250\265\240\267\177\254\250\243\277\227\264\245\243\276\230\225\216\242\240\236\263\246\251\221\255\222\247\257\254\232\243\274\250\245\306\243\245\237\251\245\273\237\217\262\250\240\216\234\243\225~\232\251\205\237\217\246\202\242\250\205\233\225\205\226\246\227\226\256\224\236\212\253\252\310z\231\254\302\237\234\260\244\237\231\237\270\221\235\250\301\246\226\231\270\242\252\235\251\270\223\233\247\266\306\310\227\232\251\265\253\237\252\252\250\246\233\260\243\251\246\244\226\233\235\244\257\234\256\246\222\243\241\237\243\254\234\253\252\250\254\250\246\244\245\277\227\242\217\221\303\220\237\236\257\233\227\214\273\243\243\234\254\332|\245\250\245\270\303\220\240\234\273\227\263\232\240\205\240\256\214\232\231\223{\251\233\210\236\233\212\235\255\244\250\254\232\236\236\272\264\252y\222\252\264\253\256\235\236\250\274\226\242\246\246\212\235\217\236\213\237\262\247\266\265\251\230\243\265\224\222\261\246\210\245\272\225\244\277\253\236\272\250\246\247\246\255\233\263\235\237\233\254\251\262\241\224\253\237\255\265\235\250\255\273\227\256\257\226\243\260\262\237\275\242\232\252\246\240\234\230\215\243\242\255\231\230\232\230\242\224\250\246\242\256\261\261\234\215\255\244\234\237\306\247\253\235\253\277\232\253\243\261\237\240\231\315\233\254\255\237\266w\242\261\231\271\251\247\244\242\262\237\251\246\246\236\241\242\247\250\252\242\240\231\234\237\232\260\222\265\236\240\255\215\244\241\240\237\244\251\246\274\254\252\221\310\231\254\305\247\221\235\254\262\261\242\242\245\221\226\233\270\230\226\250\250\247\255\206\244\245\271\244\272\252\242\226\255\230\240\275\305\253\240\236\232\226\264\260\253\231\232\253\255\253\264\252\242\250\305\227\234\251\236\251\272\257\213\245\310\242\235\315\260\240\244\252\245\252\235\231\233\250\232\226\273\222\251\261\250\253\272\235\254\243\235\245\270\262\220\245\256\244\235\253\235\236\246\243\251\246\232\232\245\245\251\231\302\241\235\232\245\242\246\247\240\254\254\246\302\236\262\245\276\232\234\261\240\243\236\247\265\243\236\206\220\261\234\216\274\213\243\243\244\237\244\273\256\233\257\226\266\246\242\235\313\235\241\314\260\224\233\253\255\230\237\227\235\224\237\237\270\225\247\255\247\250\270}\251\241\240\232\266\262\216\233\247\237\255\254\242\250\243\177\251\257\261\243\250\232\245\267\266\232\230\242\235\234\251\272\260\250\266\250\270\260\230\244\246\310\250\244\226\245\313\222\247\257\256\235\237\235\305\242\247\252\235\337o\247\255\241\277\256\247\243\241\300\242\232\313\246\245\334\312~\236\246\240\226\231\254\242\207\237\241\267\227\250\254\246\246\320\216\246\240\326\223\266\254\242\225\246\215\030\250\301\255\205\225\250H\263\314\225q\211\263\251\212\371\177\273\213\260\212\231\234\270\215\267\201\222\236\250\312\243\247\224\233\326\212\237\251\262\236\244\233\333\256\251\256\237\332\177\237\253\236\325\302\235\245\243\324\245\265\252\257\247\250\255\237\242\243\255\250\235\221\217\241\267\236\260\263\255\257\211\245\241\242\262\220\230\230\243\246\235\264\247\260\243\257\255\266\234\244\273\243\242\232\240\257\263\237\250\300\241\237\220\256\247\205\252\204\262\243\236\254\225\256\212\245\265\234\256\236\243\223\236\243\235\251\240\237\256\213\240\255\254\233\234\261\254\242\270\250\223\235\244\255\246\233\246\245\253\264\250\231\232\246\262\253\232\202\212\230\232\213\274\225\257\245\227\235\257\270\254\226\242\242\267\233\237c\262\266\226\254\234\323\272i\354\276\276\312\334\266\257\252\236\321\222\217\251W\204\221\265\217\242\321\243\212\305\251\241\255\240\252\233\246\256\236\237\237\251\246\243\216\262\243\247\243\243\312\205\241\250\231\252\255\236\247\235\264\236\220\234\303\243\234\213\234\300\226\232\266\316\250\256\230\277\260\246\247\234\306\210\217\253\236\306\313\227\260\243\265\275\225\303\237\247\314\273\215\233\244\257\231\232\240\240\207\235\226\302\227\254\244\243\245\310\205\243\233\271\236\301\256\224\235\245\246\253\254\254\230\241\236\245\235\242\231\226\231\242\231\302\235\252\240\240\237\256\265\254\242\274\233\307\247\244\244\243\326\272\250\242\254\300\225\262\267\257\236\250\254\323\237\247\270\237\273\207\244\251\244\306\235\256\246\240\276\240\220\220\243\244\240\262\243\247\220\263\225\253\262\261\230\243\277\252\251\304\245\243\234\253\241\275\240\216\263\250\236\222\251\230\217s\227\254\205\234\224\213k\233\251\200\227\226\213\223\260\253\227\252\250\246\213\254\252\261v\222\237\300\233\241\261\245\244\234\237\270\220\231\253\304\245\230\234\276\242\256\235\254\266\213\232\254\267\305\307\230\236\253\261\254\240\247\254\250\247\233\256\245\245\252\244\231\235\241\243\260\231\252\250\222\250\240\236\237\252\240\253\256\250\247\251\252\240\247\303\232\246\217\231\304\216\235\244\261\237\233\220\300\245\250\243\254\330w\244\254\242\272\272\226\247\240\266\235\274\224\240\214\240\257\216\227\242\211|\245\231\203\251\232\214\235\262\264\246\257\252\245\244\273\262\230}\221\244\263\256\253\242\242\254\277\231\244\247\247\213\234\224\235\224\245\262\256\275\277\246\232\242\273\232\227\261\242\205\244\264\227\240\271\257\241\274\253\244\246\247\255\224\267\237\242\227\256\251\263\250\235\247\242\255\276\235\253\255\267\224\254\256\232\246\256\261\235\277\246\232\253\252\235\232\231\217\242\237\255\234\232\235\235\246\230\253\247\242\260\261\262\234\213\251\243\225\232\315\255\250\233\247\307\225\253\250\270\244\246\235\321\232\253\254\234\274~\234\260\236\302\261\234\253\243\265\252\250\250\245\233\245\244\246\246\250\242\243\230\234\245\230\257\224\265\235\241\255\217\244\240\237\241\242\252\243\271\253\246\227\307\233\244\313\254\217\234\254\256\244\243\243\245\217\227\235\266\232\230\245\251\252\263\205\245\241\302\240\265\254\235\234\241\231\254\277\301\251\240\243\237\230\263\254\253\230\233\256\252\252\264\246\245\253\301\222\237\255\226\245\267\261\207\245\304\241\233\314\260\237\241\251\251\247\232\224\236\240\232\225\265\222\251\261\251\250\267\231\255\245\246\237\257\265\215\246\257\247\246\246\233\242\251\245\247\250\241\232\235\252\254\226\301\244\234\226\243\244\247\247\244\250\251\242\275\231\261\237\275\232\240\252\231\246\240\250\266\244\243\216\217\266\242\205\273\217\243\242\245\237\241\303\252\232\247\223\261\244\245\227\312\236\241\277\250\232\236\256\253\241\243\242\240\241\240\235\277\231\244\256\245\243\266\177\247\235\237\243\301\255\231\234\252\241\252\251\236\250\242\206\245\252\254\242\236\230\246\255\271\222\225\242\234\245\253\267\263\244\256\233\271\263\224\253\244\273\231\240\224\235\300\216\240\233\241\230\227\217\276\246\244\235\254\324r\257\242\236\274\262\243\235\236\307\213\222\316\244\260\313\270\203\241\245\251\252\227\261\241\224\235\230\266\231\230\254\246\243\276\213\254\236\306\234\267\253\257`\272\234u\261\311\256\226\215\302\240\271\301\250s\224\260\255\231\264\205\311/\261\211\243\234\260\227\267\222\232\247\246\304\242\241\223\215\322\211\240\232\257\226\227\224\322\262\246\245\246\333\177\253\247\244\321\303\234\227\241\333\214\272\243\251\234\243\254\224\237\234\245\232\225\216\211\230\262\240\247\240\263\261\223\250\230\246\262\233\210\224\234\263\212\273\246\244\235\251\252\262\225\236\271\236\230\234\237\251\254\246\246\267\253\234\214\265\235\204\251\200\247\246\240\252\215\254\216\240\251\233\252\237\242\217\233\236\230\245\242\226\251\222\244\253\241\241\233\251\247\234\261\257\257\237\243\273\243\237\252\242\251\262\241\231\235\251\256\251\232\203\214\233\232\211\301\222\250\246\231\241\257\277\254\230\224\241\275\234\245x\241\310\250\230\231\313\304p\310\307\307\275\316\266\266\254\216\300\240\226\235\202y\225\266\230\211\305\225\214\264\250\240\246\231\237\226\231\262\232\230\223\247\237\232\205\265\246\237\237\242\314\213\235\234\233\265\303\220\243\232\302\217\233\245\303\237\243\225\226\277\230\231\243\305\232\236\212\274\267\253\236\246\267\211\241\255\237\303\305\256\236\250\300\245\213\302\233\254\274\252\230\232\242\257\247\232\245\240\220\232\222\301\231\237\250\240\237\273\202\244\231\257\246\300\255\243\240\256\244\251\254\246\235\244\243\244\241\242\225\227\234\244\226\304\227\240\242\240\241\256\265\254\245\264\232\313\247\243\252\244\303\244\243\240\250\265\217\255\241\242\234\242\233\307\246\245\256\251\257\177\255\244\236\273\225\265\242\242\301\214\225\220\234\224\236\267\246\245\213\241\207\251\256\251\221\237\274\240\237\307\244\242\247\245\237\267\242\211\254\251\247\207\223\246\234\272\230\250\214\240\231\271\276\250\251\212\264\221\204\223\265v\227\272\216\231\233\251\245\311\201\217\260\311\242\243\261\254\243\230\226\271\217\233\245\302\237\222\230\267\244\253\234\244\273\232\242\251\275\312\322\237\220\254\275\242\242\252\260\255\243\230\256\245\256\247\247\223\231\227\250\261\227\257\247\216\241\236\242\237\254\226\251\243\243\253\244\243\240\242\276\230\234\216\206\312\213\234\226\256\227\222\203\302\244\242\230\255\340\200\241\240\253\302\322\213\234\230\307\212\251\234\245\245\232\247\224\236\234\247\233\254\234\215\261\230\217\233\272\221\254\256\216\225\246\272\264\253\204\215\261\265\243\266\235\231\257\276\221\245\233\246\205\236\212\240\211\237\257\245\252\250\252\225\232\262\226\222\263\257\206\244\300\210\243\301\252\237\264\245\246\246\247\263\237\262\234\236\241\251\246\264\232\215\251\233\257\255\236\251\253\274\224\261\263\232\235\260\265\237\270\236\240\254\251\244\241\233\217\240\246\252\227\234\242\224\243\233\237\241\237\254\262\257\241\220\252\252\237\241\301\246\246\235\244\301\226\251\233\254\236\236\221\312\243\250\247\245\261n\244\255\227\270\254\252\243\241\263\230\245\247\251\236\235\242\246\247\251\247\244\230\235\240\231\261\223\264\240\240\253\216\237\236\243\234\244\246\246\267\252\250\215\301\226\260\265\240\227\235\255\261\266\246\247\245\226\230\226\273\231\223\245\250\242\250\200\243\244\262\246\272\253\252\222\256\231\237\277\301\255\236\234\236\224\270\261\252\231\227\245\254\247\253\251\243\246\300\220\236\247\241\251\273\260\215\240\311\243\236\303\251\237\246\255\252\257\242\234\233\250\234\225\301\220\245\257\251\253\270\233\253\243\231\241\273\256\225\247\260\244\243\251\234\237\246\243\251\247\240\231\240\250\254\225\303\237\233\230\246\244\244\247\244\251\247\242\275\233\260\242\271\230\236\254\233\245\237\250\270\243\240\211\214\265\237\207\270\217\241\243\247\236\243\301\255\233\251\223\257\246\243\232\313\236\243\304\252\226\234\256\253\234\243\236\235\233\237\234\271\230\244\257\245\245\267}\251\237\241\237\272\256\224\232\247\237\255\250\235\250\240\204\252\256\254\241\241\232\244\260\271\226\226\243\234\240\247\270\260\245\265\240\267\263\225\244\246\303\241\242\226\240\305\220\243\244\244\232\233\223\301\253\244\242\247\331o\251\250\240\274\257\246\245\240\305\223\223\316\247\247\324\302\201\240\246\243\234\226\260\241\217\240\233\267\232\235\254\245\241\310\215\252\236\332\227\270\253\253n\262\221\031\255\307\247\221\215\236Z\261\277\242e\220\253\251\224\325\203\301M\260\211\232\236\272\226\264\217\227\242\247\305\247\244\220\223\330\207\242\241\257\226\235\227\326\264\250\251\244\330|\243\253\243\323\303\235\235\243\327\224\270\246\251\234\242\255\231\240\242\246\234\226\213\214\232\263\245\252\252\264\257\215\246\235\240\262\225\216\231\240\252\215\267\246\256\243\252\253\262\232\237\277\241\236\232\240\255\255\245\250\273\250\233\217\257\242\206\252\177\263\245\241\251\215\260\212\241\253\232\252\237\244\225\233\240\231\244\240\240\247\222\243\254\254\236\237\260\252\243\264\256\237\241\241\270\241\234\255\245\255\264\242\232\235\247\262\252\233\202\215\232\234\212\277\223\251\246\232\236\256\274\253\230\235\241\275\234\244b\247\300\244\240\226\316\301`\351\314\305\305\322\265\266\252\225\312\224\224\240Zx\225\266\231\233\315\236\212\306\251\237\247\233\241\231\236\263\233\231\227\250\237\240\204\264\254\241\242\246\307\211\237\242\233\262\266\224\250\231\275\221\221\242\304\244\236\221\227\303\222\233\260\305\237\245\214\276\267\253\244\246\277\204\225\254\243\305\310\243\246\244\273\263\217\305\235\254\301\261\226\233\240\257\237\231\244\240\212\234\224\276\235\240\250\237\243\300\202\243\234\270\243\275\254\233\236\254\243\253\255\247\231\241\240\246\237\243\224\227\235\243\230\302\231\245\243\243\241\256\266\253\242\273\233\304\246\241\243\242\321\263\245\240\253\272\214\263\261\246\234\247\244\317\250\246\263\245\264\177\246\247\240\302\227\262\251\242\277\224\216\221\237\231\234\264\242\252\211\244\214\255\257\252\224\244\276\243\242\306\247\241\240\246\237\272\244\210\256\247\243\217\237\233\224\217\223\247\213\233\230\243\217\232\244\210\252\217\204\216\263\211\223\267\241\240\230\254\251\274}\211\253\303\237\243\260\252\244\233\236\271\212\227\253\277\237\226\230\271\250\255\235\246\267\223\235\253\275\312\312\234\230\255\270\243\240\251\254\253\243\227\260\243\253\254\246\226\236\234\246\262\231\252\250\217\244\236\237\236\254\232\252\250\245\247\246\245\235\244\300\226\240\217\216\313\213\231\233\255\230\230\206\301\252\243\233\260\334{\240\247\247\277\310\215\242\235\300\216\263\226\242\221\234\254\223\231\242\227\206\247\230\210\255\226\217\233\270\242\251\257\240\235\243\273\262\235\177\210\254\261\250\260\241\233\253\277\226\246\245\244\204\240\214\234\214\244\262\251\265\263\252\227\236\264\225\224\262\252\207\244\271\212\242\273\255\241\271\247\246\246\247\257\232\264\234\237\236\254\250\265\242\224\247\235\257\264\235\254\253\277\225\256\260\227\242\255\264\235\267\236\235\254\254\245\237\233\217\241\244\254\231\231\242\226\245\232\244\242\243\256\264\262\235\214\251\247\225\237\314\255\245\234\250\306\222\253\244\260\242\242\226\322\247\251\256\243\266s\232\255\233\300\257\242\253\241\261\241\247\245\247\235\241\242\247\250\252\247\244\232\233\240\231\262\222\265\237\241\253\216\241\237\240\236\243\251\247\267\252\246\217\303\230\250\274\245\224\234\253\261\256\244\246\247\222\227\232\271\240\223\245\250\246\253\200\244\242\303\243\270\253\246\226\245\230\246\270\301\254\242\231\240\224\267\255\247\230\230\244\246\247\256\251\244\250\274\224\241\253\237\245\261\265\211\242\306\243\234\304\250\236\244\253\256\256\236\230\233\244\233\223\267\220\244\257\252\250\265\234\255\245\237\235\261\263\222\242\260\244\236\252\237\235\244\242\252\251\235\230\241\251\251\226\277\243\231\234\246\242\247\246\241\252\252\243\271\233\260\245\273\230\234\254\234\243\235\253\272\242\234\206\216\262\236\212\270\217\237\244\250\237\241\274\252\232\256\223\257\250\246\236\313\237\241\311\252\225\234\255\257\227\237\231\235\224\236\235\265\227\241\255\246\251\270|\252\240\252\231\261\263\222\230\247\237\253\252\237\251\244\201\252\257\257\242\246\224\245\265\265\235\226\244\234\234\250\267\260\250\274\245\266\262\232\235\245\311\253\244\227\244\315\215\250\254\254\233\242\230\311\252\244\246\242\340l\242\254\236\302\254\251\251\241\300\237\226\311\251\247\333\312\202\241\246\236\221\231\261\243\211\240\242\266\235\247\251\245\243\323\214\253\236\334\224\266\247\247\205\250\210\000\255\313\244\220\234|1\254\276\227\\\216\252\245\223\377~\266\213\265\214\232\237\261\222\263\204\220\231\250\315\245\245\223\226\334\204\236\250\263\234\246\231\335\271\253\256\243\333{\234\253\242\334\303\235\246\242\327\235\264\252\260\243\247\257\240\244\237\253\237\233\220\222\240\272\244\255\262\261\260\210\242\241\240\263\223\231\236\241\247\226\262\246\263\247\253\252\266\234\240\301\245\241\235\244\255\263\244\251\277\244\234\220\252\244\204\252}\270\250\237\253\222\261\207\245\263\234\253\240\245\226\243\244\233\240\236\240\250\216\241\255\263\231\242\266\255\244\270\250\220\237\241\270\235\233\253\242\251\263\244\227\232\246\266\253\227~\211\230\233\211\275\223\253\245\230\233\260\267\253\227\243\240\275\231\244T\262\274\225\245\227\330\276]\336\262\301\324\343\254\261\261\234\333\214\221\240?|\217\263\230\246\325\250\207\320\242\241\252\240\246\234\244\266\231\227\235\251\242\247\211\266\254\244\244\250\307\206\235\246\232\260\263\236\254\234\267\230\211\235\306\247\231\214\226\314\213\220\266\313\244\256\223\311\265\250\247\241\303\200\217\251\246\313\322\227\265\244\266\275\222\303\240\251\311\265\220\231\245\261\230\232\242\241\207\234\224\300\234\245\245\241\246\310\177\243\233\300\235\274\255\227\235\251\243\255\256\250\227\241\235\245\235\244\224\226\233\242\226\302\232\246\240\241\241\257\265\255\241\276\230\303\247\244\235\237\330\272\242\241\252\301\213\266\267\2